{"version":"1.0","truncation":null,"padding":null,"added_tokens":[{"id":0,"special":true,"content":"<pad>","single_word":false,"lstrip":false,"rstrip":false,"normalized":false},{"id":1,"special":true,"content":"</s>","single_word":false,"lstrip":false,"rstrip":false,"normalized":false},{"id":2,"special":true,"content":"<unk>","single_word":false,"lstrip":false,"rstrip":false,"normalized":false}],"normalizer":{"type":"Sequence","normalizers":[{"type":"Nmt"},{"type":"NFKC"},{"type":"Replace","pattern":{"Regex":" {2,}"},"content":" "},{"type":"Lowercase"}]},"pre_tokenizer":{"type":"Sequence","pretokenizers":[{"type":"Metaspace","replacement":"▁","add_prefix_space":true},{"type":"Digits","individual_digits":true},{"type":"Punctuation"}]},"post_processor":{"type":"TemplateProcessing","single":[{"Sequence":{"id":"A","type_id":0}},{"SpecialToken":{"id":"</s>","type_id":0}}],"pair":[{"Sequence":{"id":"A","type_id":0}},{"Sequence":{"id":"B","type_id":1}}],"special_tokens":{"</s>":{"id":"</s>","ids":[1],"tokens":["</s>"]}}},"decoder":{"type":"Metaspace","replacement":"▁","add_prefix_space":true},"model":{"type":"Unigram","unk_id":2,"vocab":[["<pad>",0.0],["</s>",0.0],["<unk>",0.0],["▁",-2.039920120136596],["▁the",-3.1772887510029726],[",",-3.3396660997781815],[".",-3.5479249774491315],["s",-3.5912362248833904],["a",-3.830131424838768],["▁of",-4.003314923042392],["▁and",-4.035343654988818],["d",-4.035896282621971],["▁in",-4.142156058112585],["1",-4.19324787913467],["\"",-4.289921480845248],["0",-4.376868072119533],["▁to",-4.533165288543723],["2",-4.690970189653571],["9",-4.715957491315077],["@",-4.806629644184618],["e",-4.86842428992288],["▁was",-4.898318230726346],["t",-4.921326638920123],["▁is",-5.022804796726097],["-",-5.049597997926766],["'",-5.154225757724305],[")",-5.215743675148232],["(",-5.215875985199622],["▁as",-5.246612742186983],["▁by",-5.255498663379065],["▁on",-5.273686422960871],["=",-5.288146988891416],["y",-5.300228555409323],["▁for",-5.318628144100186],["i",-5.36589576302781],["8",-5.4624268141646635],["o",-5.494684978119247],["ly",-5.531614090124551],["ing",-5.536364418715825],["5",-5.54766776258073],["▁with",-5.553303112725132],["3",-5.556064476813715],["n",-5.608935662307854],["4",-5.627401929114615],["7",-5.637828239313043],["6",-5.644456688219714],["▁it",-5.66757361806058],["▁that",-5.714540375877345],["▁he",-5.729995386191927],["▁from",-5.823603057561897],["▁his",-5.895060861418893],["▁an",-5.910593077646002],["r",-6.05475042707036],["m",-6.298649610451745],["▁which",-6.315289264384228],["▁were",-6.3667010699759885],["▁first",-6.439939335169804],["c",-6.467150764444506],["f",-6.497849459221712],["▁film",-6.522266158467891],["the",-6.530703935615426],["▁also",-6.5331302167900684],["l",-6.570586703260638],["▁be",-6.593555203497431],["h",-6.596694414047377],["▁are",-6.610610161205257],["▁had",-6.618089812578118],["–",-6.6388828221414435],["▁has",-6.658761998321959],["u",-6.670559373784638],[":",-6.678031922668435],["▁one",-6.694733912665356],["▁who",-6.715939892783144],["▁her",-6.717686173855771],["▁new",-6.746833305719882],["▁their",-6.746971339875422],["▁or",-6.770806030310345],["▁this",-6.7729674405913265],["▁american",-6.783125161479548],["▁its",-6.805782401989937],[";",-6.806089530025352],["▁after",-6.811960914579663],["▁but",-6.871715808738681],["b",-6.87748949088415],["▁two",-6.8824555765798845],["▁she",-6.891881455387397],["th",-6.9103297897805955],["p",-6.950334020767238],["▁not",-6.960575863235757],["▁album",-6.999674308170844],["g",-7.008506684584818],["▁have",-7.037778520742133],["in",-7.049132840975544],["▁been",-7.0536049407572055],["k",-7.075340852694904],["▁known",-7.149033854415192],["▁other",-7.149700357210062],["▁series",-7.161974704469539],["▁during",-7.162446446555981],["▁all",-7.184434547612094],["on",-7.2110776663449485],["▁they",-7.236198891946291],["▁released",-7.238713790459856],["▁time",-7.2410749969664145],["▁united",-7.243548115850651],["▁when",-7.28003165319465],["▁world",-7.313753326867095],["▁season",-7.32624374691042],["▁over",-7.333192206282568],["▁most",-7.33679262746446],["▁into",-7.352087519754887],["▁song",-7.371482203738756],["▁game",-7.37675471478069],["▁states",-7.388477682568396],["an",-7.390475811560085],["▁second",-7.3915241647534895],["▁city",-7.394368917166231],["▁more",-7.400563963243659],["v",-7.414913655837495],["▁three",-7.4387896135063],["▁band",-7.441103366914467],["▁music",-7.464088393564387],["▁state",-7.472492435137314],["▁may",-7.48083684513329],["▁team",-7.48467600885823],["▁between",-7.489913483457361],["▁would",-7.494560306351819],["▁year",-7.501255343151403],["w",-7.5065762679986925],["▁later",-7.507070378818368],["▁only",-7.510659064380439],["▁national",-7.541534579336792],["▁while",-7.5507888472774845],["▁up",-7.552208255082254],["▁war",-7.55694432070678],["▁best",-7.558398799131472],["born",-7.567669581598251],["▁south",-7.570600865066263],["▁about",-7.580500158529082],["/",-7.592044709599909],["▁part",-7.592548181256125],["▁where",-7.628362031957634],["▁north",-7.637185675266798],["▁out",-7.655807397779766],["▁under",-7.662386445623771],["▁than",-7.667699800975528],["▁university",-7.667827901849142],["▁years",-7.66809737580037],["▁such",-7.668352360554428],["▁made",-7.671343090262395],["▁some",-7.672403453058886],["ever",-7.67479860427256],["▁well",-7.685417142265395],["▁name",-7.689872263872454],["▁before",-7.702490673788908],["▁there",-7.704164102413543],["▁school",-7.705634611121692],["▁both",-7.7120364491431985],["▁how",-7.716639720616916],["▁original",-7.720078724247195],["▁including",-7.725091688164964],["▁him",-7.727965754213992],["▁number",-7.742898874153747],["▁many",-7.752805633023858],["man",-7.753465990285214],["▁al",-7.765697044745705],["▁group",-7.779566736483201],["▁played",-7.783269478471546],["▁through",-7.787378353114956],["▁became",-7.795219492212361],["▁being",-7.795532743122614],["▁football",-7.796122737860577],["ies",-7.803344016477375],["▁since",-7.807078620636421],["▁based",-7.81292603837265],["▁company",-7.819223858948016],["▁four",-7.824500489685962],["▁show",-7.825898348516018],["j",-7.8282581693077535],["z",-7.8327258384429825],["▁television",-7.833868785416653],["▁used",-7.835093626498672],["▁single",-7.836298161487093],["▁british",-7.8698946288844205],["us",-7.871506061018429],["▁several",-7.879223079655226],["▁league",-7.886152113320868],["?",-7.899300878051266],["is",-7.899521597248258],["▁written",-7.906032440959301],["▁directed",-7.906034468603171],["▁can",-7.911173505986271],["▁york",-7.917487004380476],["▁work",-7.921533750482585],["▁early",-7.922425118073333],["▁high",-7.936739115291202],["▁west",-7.940309601567138],["▁located",-7.942356410435508],["▁won",-7.949559629988929],["▁final",-7.95507783789245],["▁until",-7.968819454865173],["▁september",-7.98677584302677],["▁award",-7.990000432397764],["▁john",-7.991546271922507],["al",-8.007533316082135],["▁county",-8.010500949958438],["▁rock",-8.02694856626112],["▁general",-8.032480804129284],["▁against",-8.033329701091567],["▁co",-8.03377625814976],["▁former",-8.034829720650983],["▁march",-8.036657638812208],["▁august",-8.038428742551481],["▁october",-8.043208149718645],["▁like",-8.046754095832364],["▁following",-8.050702254436306],["though",-8.058192704089025],["▁same",-8.058615063212082],["▁these",-8.064979889130338],["▁what",-8.065136830865208],["▁international",-8.066106558895152],["▁produced",-8.068956018482439],["▁near",-8.076333465667258],["▁called",-8.076976879430225],["▁episode",-8.083161707533058],["▁people",-8.085976427824495],["▁title",-8.086876927885964],["▁home",-8.086880968807739],["&",-8.088162096866721],["▁june",-8.089617475869343],["▁third",-8.090829369045698],["▁place",-8.10859295770295],["▁day",-8.110572576836946],["▁november",-8.111845527327734],["▁include",-8.113509823099932],["▁began",-8.114783598575444],["▁games",-8.122956441494306],["▁april",-8.124941359393313],["▁area",-8.125239899124256],["▁july",-8.127362756892703],["▁long",-8.14229820152644],["▁january",-8.142523404820064],["▁them",-8.145313316274986],["▁house",-8.146641506239515],["▁club",-8.148298039777293],["▁family",-8.14845401550753],["x",-8.148472516373552],["—",-8.157588738028002],["▁role",-8.15768804511674],["▁december",-8.160889027741346],["▁east",-8.174390267920613],["▁english",-8.179313391949886],["▁major",-8.184392497478193],["▁life",-8.186734123632137],["▁record",-8.191501070508233],["▁park",-8.19223223291891],["▁book",-8.193278408686881],["▁end",-8.193798682642907],["▁along",-8.204605984456952],["or",-8.213024567417284],["▁five",-8.215540257373735],["▁college",-8.225491211525444],["▁play",-8.225701223280135],["▁did",-8.23007245987499],["▁use",-8.23219665939498],["▁river",-8.233710983532532],["▁million",-8.245106136759441],["▁member",-8.246215642674256],["▁publishe",-8.247283035959672],["▁short",-8.249254134252622],["▁re",-8.262365571458535],["▁character",-8.263281298761445],["▁februar",-8.264007028279204],["▁us",-8.264612733159359],["▁create",-8.269839324124401],["▁named",-8.273635991066053],["▁career",-8.277489365928703],["▁studio",-8.2786570929359],["to",-8.285004932445371],["▁around",-8.289233922195718],["▁each",-8.291132347926505],["▁country",-8.293617790837363],["▁back",-8.293794354679948],["▁director",-8.2954199307182],["▁received",-8.29719594878292],["▁current",-8.297521544524868],["▁line",-8.300058093170538],["▁release",-8.305248964524354],["▁public",-8.30597062726101],["▁century",-8.309173755859115],["▁player",-8.311683062709088],["▁main",-8.313478693042388],["▁singer",-8.317280943871221],["▁history",-8.321773081879678],["▁will",-8.321842565725948],["▁video",-8.329312656635022],["▁government",-8.333019468532942],["▁large",-8.33319894393373],["▁air",-8.335152737756697],["▁held",-8.33866379637154],["▁previous",-8.340962006671162],["▁last",-8.343771374651574],["▁division",-8.344965981780325],["▁set",-8.347002649383711],["▁system",-8.361760473772668],["▁took",-8.361977234264215],["▁because",-8.363212458515852],["▁top",-8.36417953608316],["▁found",-8.385794100157304],["▁story",-8.386288415519378],["$",-8.3869611989807],["▁km",-8.388429411791082],["▁could",-8.399118110826636],["▁king",-8.399849514334642],["▁said",-8.400006445219162],["▁actor",-8.401793613893753],["▁you",-8.40229296237894],["▁town",-8.40737361091284],["▁man",-8.416471427991963],["▁professional",-8.418642017305721],["]",-8.423314592542168],["▁now",-8.428408483205416],["▁german",-8.432416427525125],["▁road",-8.437954439059292],["▁due",-8.43815257071939],["▁french",-8.439683450050854],["▁president",-8.441021891190742],["▁members",-8.452003120033291],["re",-8.452122310801306],["▁production",-8.452347683683435],["▁black",-8.45327828839585],["▁death",-8.459397520980783],["▁men",-8.46066686074708],["▁served",-8.464003284621764],["▁great",-8.46402207509708],["▁six",-8.465400439777056],["▁another",-8.467620243094109],["▁records",-8.473373231371943],["▁army",-8.475111079313765],["▁lead",-8.478084402788477],["▁debut",-8.47961463323906],["▁live",-8.479745868783057],["▁continue",-8.480061043172404],["▁included",-8.48175237411106],["own",-8.485463583166785],["▁any",-8.490155937725623],["▁support",-8.497443928509991],["▁describe",-8.497683992860312],["▁district",-8.500418092123402],["▁late",-8.502249192756318],["▁built",-8.503891414131349],["▁small",-8.513454313260016],["▁un",-8.514208468688528],["▁station",-8.51673364654164],["▁island",-8.522080654199366],["▁head",-8.523429146143224],["▁within",-8.524544923230003],["▁among",-8.528807555672554],["▁species",-8.529220882258974],["able",-8.543348857329487],["▁official",-8.543523091389808],["▁england",-8.545651674020892],["▁songs",-8.547149020468371],["▁down",-8.547431529181557],["▁led",-8.551950657223719],["▁we",-8.553157969319503],["▁common",-8.555606856878615],["▁awards",-8.5560389232269],["um",-8.558337090683628],["▁center",-8.560310687924243],["▁recorde",-8.562693375761556],["▁left",-8.56314283909001],["▁service",-8.563693272133342],["▁novel",-8.566924519309165],["▁me",-8.567000741304748],["▁party",-8.56738485350478],["▁street",-8.570340267705372],["▁white",-8.570685767241883],["▁san",-8.577208068444863],["▁local",-8.58270606475072],["▁films",-8.583112283207013],["▁mi",-8.589125993001607],["▁version",-8.592198769218557],["%",-8.595542908636617],["▁america",-8.599946542201842],["▁born",-8.602165846230202],["▁just",-8.605883428870138],["▁become",-8.608918786718354],["▁building",-8.60902585587178],["▁battle",-8.610158892273434],["▁australian",-8.613122419895548],["▁wrote",-8.615901434440223],["▁force",-8.618513344183041],["▁comedy",-8.618834330327907],["▁much",-8.619587479525865],["▁often",-8.629079323245081],["▁route",-8.633892054651046],["▁love",-8.635826081253244],["▁power",-8.636922745300433],["▁track",-8.637981174916558],["▁magazine",-8.640064702889768],["▁order",-8.640540055844799],["▁central",-8.64189843228042],["▁old",-8.64222808314942],["▁times",-8.642723567179331],["▁western",-8.644815893017203],["▁off",-8.645032052428817],["▁tour",-8.645803697882947],["▁young",-8.647798264450802],["▁coach",-8.648269097282165],["▁james",-8.658749862430968],["▁population",-8.661641876611045],["▁features",-8.665613962647063],["▁position",-8.666028536441576],["▁la",-8.668296520137785],["▁producer",-8.672210178859146],["▁london",-8.675413198404808],["▁association",-8.675984575615066],["▁appeared",-8.679082504922006],["▁women",-8.680508985214122],["▁championship",-8.690827646014592],["’",-8.69235524312599],["▁according",-8.693963771421908],["▁star",-8.694879292435708],["having",-8.695980653867279],["▁side",-8.69649543082428],["▁water",-8.697071282541588],["▁drama",-8.70333908846013],["▁act",-8.704710069300136],["▁australia",-8.708799639798153],["▁still",-8.710243095306458],["son",-8.711883801131552],["▁radio",-8.714982835305126],["▁california",-8.715666928171741],["those",-8.716228302431595],["▁founded",-8.719542642192541],["▁formed",-8.720103866785264],["▁considered",-8.721283422955052],["[",-8.725542079848653],["▁different",-8.72868806087317],["▁church",-8.730974359492023],["▁actress",-8.732326524923915],["▁way",-8.735732798608415],["▁project",-8.735853547824924],["▁chart",-8.736250752802336],["▁full",-8.739657211243788],["▁make",-8.741287657089748],["▁stars",-8.74587249411388],["▁per",-8.746482719801127],["▁art",-8.746912853356358],["▁next",-8.755808251058504],["▁red",-8.755986407185402],["▁very",-8.757496064689535],["▁musical",-8.761033893656565],["▁southern",-8.761410917405748],["▁popular",-8.761702142950883],["▁program",-8.76392018774856],["▁point",-8.766065001490619],["▁court",-8.772826109297434],["▁indian",-8.774476876291768],["▁largest",-8.775419530083354],["▁cup",-8.778378619214545],["▁return",-8.778870927705224],["▁children",-8.77922540833847],["▁royal",-8.779395346420046],["▁artist",-8.783860960195032],["▁development",-8.785818297927841],["▁george",-8.788429767949053],["▁again",-8.78847126020044],["▁complete",-8.792909668526477],["▁total",-8.7958941607544],["▁david",-8.801883241455641],["▁go",-8.802649159100008],["▁military",-8.803764957551127],["▁form",-8.804998191711517],["▁northern",-8.80543720247091],["▁design",-8.812860615133829],["▁fourth",-8.81420444510427],["▁similar",-8.815627512301077],["▁law",-8.8166977200083],["▁various",-8.817858578778594],["▁sea",-8.81799018232308],["est",-8.8197358372266],["▁featured",-8.81988789872331],["▁william",-8.820319457629482],["▁political",-8.820763760260023],["▁period",-8.820946580637129],["▁establishe",-8.821560248037743],["▁score",-8.823579163344917],["▁father",-8.823898224228385],["▁race",-8.82398566153888],["land",-8.825081785888543],["▁my",-8.829454093227532],["▁came",-8.833139875229898],["▁wide",-8.83414783428457],["▁business",-8.835547845728183],["▁develope",-8.838915857563144],["▁starring",-8.842141922404956],["▁kingdom",-8.848645527500038],["▁performance",-8.85151426952651],["▁hall",-8.854508368962046],["▁result",-8.856058998599412],["▁win",-8.85628710198905],["▁run",-8.858353261435234],["▁special",-8.859492995336394],["▁level",-8.861010758255555],["ers",-8.862854655369814],["▁site",-8.865181948721526],["▁even",-8.866279333720774],["▁ten",-8.86780735328288],["▁car",-8.868261804229446],["▁initial",-8.869137141218095],["▁son",-8.86976328327525],["▁performe",-8.870262646305873],["▁night",-8.870451348427517],["▁days",-8.871859620132788],["▁michael",-8.873438589197852],["▁further",-8.877761648751653],["▁writer",-8.882955746257739],["▁ship",-8.88329043098725],["▁match",-8.883502902803732],["▁lost",-8.883999828173938],["▁given",-8.885411203608774],["by",-8.890134404283952],["▁half",-8.890963515838191],["▁seven",-8.893721359286785],["▁office",-8.89460362860702],["signed",-8.895178604968091],["▁region",-8.896528345448761],["▁went",-8.896611772933689],["▁stage",-8.898743598382957],["▁style",-8.898953896649287],["▁post",-8.900584315448569],["▁real",-8.902336097920537],["▁little",-8.904036453546015],["▁few",-8.904705140751965],["!",-8.905704596430887],["▁robert",-8.90663298419203],["▁age",-8.907020818693269],["▁case",-8.909204680050708],["▁paul",-8.914195727391158],["▁reache",-8.915510612279705],["▁non",-8.915535838224256],["▁cause",-8.917509092861808],["▁movie",-8.91941095627436],["▁science",-8.920565357539747],["▁highway",-8.922767754646046],["▁take",-8.923691598314722],["▁land",-8.925488181444505],["▁making",-8.926818313083647],["▁attempt",-8.935208317496826],["▁worked",-8.935326434151735],["▁hit",-8.938403301203229],["▁open",-8.93843465856924],["▁basketball",-8.942521395431537],["▁playing",-8.945823556039105],["▁light",-8.947836339298597],["▁storm",-8.949441712446161],["▁event",-8.952143946466611],["▁contain",-8.952449741700322],["▁author",-8.952515158128808],["▁successful",-8.954138208520751],["▁festival",-8.955551704826016],["▁players",-8.956770495246223],["▁big",-8.957018438981645],["▁throughout",-8.957293212249336],["▁japanese",-8.958378308082628],["▁field",-8.958916623981132],["▁canada",-8.959401500605752],["▁singles",-8.960000852681288],["▁grand",-8.960623354240107],["▁action",-8.962429881134065],["▁fire",-8.963291122959188],["owned",-8.964170998827411],["▁airport",-8.967592501765893],["▁feature",-8.972222086476638],["moved",-8.973363589085402],["▁network",-8.978700129257536],["▁good",-8.982202485946043],["▁lake",-8.982586017071824],["▁without",-8.98451881854847],["▁works",-8.986614406210979],["▁media",-8.99011241481554],["▁canadian",-8.991862156684942],["▁control",-8.993420227421831],["men",-8.994758849434524],["▁recording",-8.995367128918232],["▁research",-8.995540607418349],["▁academy",-9.00250803225781],["▁close",-9.00275014227124],["▁disney",-9.004057957238906],["▁union",-9.00407636431941],["▁died",-9.004248260246287],["ity",-9.004518344551625],["across",-9.005007634638558],["▁eight",-9.006055109078527],["▁tv",-9.00802048142886],["▁washington",-9.010785149097304],["▁starte",-9.01156348884736],["▁conference",-9.0131493691259],["▁date",-9.01419188199923],["▁despite",-9.014251417790904],["▁never",-9.014469550985789],["▁range",-9.016581691153284],["▁writing",-9.017291879542428],["▁forces",-9.017382302668322],["▁free",-9.021364471576367],["▁success",-9.022869777380151],["▁characters",-9.02546790204423],["▁voice",-9.02917096467386],["▁cast",-9.031843620573245],["▁present",-9.032042836377752],["▁eastern",-9.034377133350002],["▁los",-9.037283757606597],["▁modern",-9.038278828476264],["▁term",-9.038892051661875],["▁community",-9.039309753628212],["▁attack",-9.040544256118125],["▁gold",-9.046794858931976],["▁particular",-9.047350106950509],["▁pop",-9.048082375330967],["upon",-9.050663541432218],["up",-9.053865510366036],["▁right",-9.056872014372887],["ve",-9.057875807192136],["▁replace",-9.059307541275343],["▁sold",-9.060428444966538],["▁appear",-9.065880542354574],["▁opene",-9.066258175675074],["▁influence",-9.06668892361414],["▁together",-9.067041660979385],["▁uk",-9.067612786972242],["▁using",-9.067739406643916],["▁week",-9.069216614808171],["▁class",-9.069532176140363],["▁india",-9.072375029523537],["▁list",-9.0739675686784],["▁aircraft",-9.074122149974974],["▁summer",-9.074441348613828],["▁returne",-9.0785055285686],["▁addition",-9.08015124777864],["▁albums",-9.087736826477787],["be",-9.09316483618592],["▁bridge",-9.095676863589144],["▁issue",-9.097245265014951],["▁independent",-9.099215935473165],["▁europe",-9.099339953241294],["▁announced",-9.101320152288366],["▁european",-9.10498542545548],["▁leading",-9.107449624679887],["▁sound",-9.109269493212564],["▁though",-9.109797426185278],["▁france",-9.11061277900755],["▁front",-9.111713811263606],["time",-9.112254692512415],["▁mid",-9.113057786418606],["▁commercial",-9.115218925781512],["▁eventual",-9.116217950172944],["▁once",-9.116737840068328],["▁texas",-9.119059892148936],["▁every",-9.124039163864014],["▁strong",-9.12425504506966],["▁japan",-9.127616010759148],["▁broadcast",-9.129680770378892],["▁chief",-9.130754475616612],["▁coast",-9.13106257683236],["▁followe",-9.13144827946725],["▁himself",-9.13831762346418],["▁green",-9.14031828423152],["▁designed",-9.140705064883132],["▁miles",-9.141208419973152],["q",-9.144758566623738],["▁increase",-9.144846610835522],["▁bay",-9.15282432320579],["he",-9.155827537639018],["▁sports",-9.158427204272984],["▁super",-9.159463313271983],["▁female",-9.161649574108305],["▁damage",-9.16198690222208],["▁believe",-9.162870113414971],["▁village",-9.162870134240835],["▁hill",-9.162960659382655],["▁far",-9.163272777862971],["and",-9.164506943904312],["▁working",-9.165123422834457],["▁executive",-9.166114836520476],["ter",-9.166126574697731],["▁subsequent",-9.167180800170216],["▁board",-9.16728599164057],["▁pre",-9.16790046218414],["stead",-9.168888685542148],["ation",-9.16901048261361],["▁tropical",-9.169937609835682],["▁round",-9.17091671221604],["▁brother",-9.173963175904955],["▁stadium",-9.185689992387704],["▁social",-9.188246365833008],["▁entertainment",-9.19093198999757],["▁events",-9.190943120365183],["▁campaign",-9.190993710337702],["▁angeles",-9.192033857331744],["▁mother",-9.193230162882292],["▁wife",-9.194152381867022],["▁brown",-9.194416042779402],["▁metal",-9.19519759184578],["▁council",-9.196765895993426],["▁opera",-9.197293295209858],["▁mark",-9.197564550314633],["ism",-9.19933492511739],["ch",-9.199833550098624],["▁peter",-9.201679505788936],["▁gave",-9.203451756698136],["▁joined",-9.203471663723262],["▁low",-9.203511292724114],["▁important",-9.20557323202866],["▁movement",-9.209637890514138],["▁space",-9.209964369863384],["▁fifth",-9.210401256402488],["▁regular",-9.211496064229364],["▁middle",-9.211809722614058],["▁label",-9.212324936579128],["▁highest",-9.212683685940084],["▁china",-9.213519040098742],["▁theatre",-9.215812311364504],["▁charles",-9.21593387550487],["▁human",-9.229242486490191],["▁recent",-9.229403881360051],["whose",-9.229629927389208],["▁books",-9.233704467568373],["▁areas",-9.234576902958825],["▁italian",-9.234593897793548],["▁away",-9.236270538013988],["▁hot",-9.23630351261703],["▁society",-9.23745377043312],["▁victor",-9.238132395966572],["▁thomas",-9.239406655260623],["▁construction",-9.240290999391387],["▁aired",-9.241408150582588],["our",-9.243051467543411],["▁involve",-9.243231264673652],["▁does",-9.244166958839635],["▁roles",-9.245050376617272],["▁toward",-9.245982605438956],["▁department",-9.247681496383573],["▁bill",-9.24843784253848],["▁entire",-9.249686695073644],["▁channel",-9.250337366146042],["▁reported",-9.252446310658136],["▁allow",-9.254584922772894],["▁start",-9.255825588344344],["▁germany",-9.255934536430145],["▁henry",-9.256913071001248],["▁base",-9.257637838296128],["ley",-9.259003522172872],["▁richard",-9.259161480488949],["ted",-9.259659745825026],["▁edition",-9.259893291027147],["▁months",-9.260036531059782],["▁florida",-9.260536007429987],["▁body",-9.262774565415093],["▁significant",-9.263849442477596],["▁remaine",-9.265253469727414],["▁mountain",-9.267273695615229],["▁civil",-9.267430601174288],["▁le",-9.26823585476887],["finished",-9.268397931122562],["ville",-9.270664053411885],["▁additional",-9.272121776811453],["▁dance",-9.275068435289768],["▁element",-9.275693812330172],["one",-9.27778048091196],["▁heavy",-9.27969517306584],["▁tournament",-9.279797945720947],["▁taken",-9.282047524137743],["▁remain",-9.282913010444949],["▁hurricane",-9.284967669770912],["▁prior",-9.285793313673237],["▁type",-9.2874372113114],["▁ma",-9.287834012492008],["▁example",-9.288235622870474],["▁animated",-9.288898053911314],["▁others",-9.289865496019296],["▁girl",-9.291004351609663],["▁centre",-9.294292702223576],["▁chicago",-9.296028166423202],["less",-9.296984060164345],["▁seen",-9.302032722942783],["▁education",-9.30228034180344],["▁usual",-9.302665798777031],["▁students",-9.30320398465606],["▁police",-9.303711066969369],["▁structure",-9.30446730729616],["▁private",-9.306408127910537],["▁critics",-9.306632588000316],["noted",-9.308408992491117],["▁test",-9.309207064579509],["▁ground",-9.31250063331931],["▁plays",-9.312551665030112],["▁arts",-9.314154601447523],["ner",-9.314759356253914],["▁cover",-9.315500135590822],["▁language",-9.315508569406749],["american",-9.317047186926908],["▁nine",-9.319686878144418],["▁capital",-9.321514371589815],["▁less",-9.321545007529462],["▁virginia",-9.322132376288607],["▁associate",-9.322867539672025],["▁historic",-9.326127119260525],["▁composed",-9.3268498523302],["▁person",-9.32771258687561],["▁see",-9.32862173445576],["▁fiction",-9.328997295138164],["▁smith",-9.32927106738839],["▁sometime",-9.329597173996438],["▁native",-9.32963247522112],["▁navy",-9.333630385444536],["▁overall",-9.334988869153252],["▁killed",-9.337391345419237],["▁winning",-9.337914039684076],["▁industry",-9.33946845095811],["▁operate",-9.34019037314746],["▁daughter",-9.342980935082606],["▁composer",-9.343215700314063],["▁blue",-9.345119194270112],["▁don",-9.345329451134049],["▁suggest",-9.347947694740803],["▁election",-9.348454813051571],["▁model",-9.348460796014423],["▁woman",-9.349658651179576],["▁valley",-9.349693917083698],["▁museum",-9.35044501523794],["▁command",-9.350950249167376],["▁get",-9.353459910698424],["▁guitar",-9.353460638353646],["▁collection",-9.353465928908513],["▁minister",-9.354056773096945],["▁appearance",-9.354498829649597],["▁behind",-9.35526201079078],["ous",-9.35546651768779],["▁lee",-9.359719213076486],["▁beginning",-9.359730882635132],["▁baseball",-9.360361320188291],["▁officer",-9.36164225466072],["field",-9.3637279112465],["#",-9.363937617723758],["▁stone",-9.365480826889524],["▁relationship",-9.370580818721558],["ness",-9.370837571728371],["▁market",-9.37130786364498],["▁points",-9.37169677349824],["▁perform",-9.376991290489345],["▁adde",-9.377303306222917],["▁referre",-9.37899401507844],["▁training",-9.38045894097693],["▁interest",-9.380545252410222],["▁ships",-9.381746578147844],["▁christian",-9.385446989794918],["▁teams",-9.38621883776755],["▁experience",-9.386360986429215],["▁ha",-9.386620344089216],["▁railway",-9.387447616756756],["▁health",-9.387590569641825],["▁fox",-9.389298902419192],["▁leader",-9.389368405066124],["▁find",-9.389501003987546],["▁change",-9.39011995066432],["▁available",-9.390377878003102],["▁tracks",-9.391251084063413],["▁earlie",-9.391550298667353],["▁services",-9.392893673440293],["age",-9.393158092712929],["▁plan",-9.395400462106508],["▁solo",-9.396738222487434],["▁almost",-9.39725648306894],["▁thought",-9.397699164965282],["▁countries",-9.398439760679436],["▁awarded",-9.401400537994377],["▁roman",-9.403574128278358],["▁sent",-9.40427492704849],["▁stated",-9.404320214609315],["▁critical",-9.404773660139291],["▁van",-9.404941035082208],["▁martin",-9.407208953685384],["▁rights",-9.407566619448644],["▁korean",-9.408266724019589],["▁african",-9.409824247928588],["▁bowl",-9.410345902645473],["▁organization",-9.411791832761972],["▁saw",-9.41230787180012],["▁cross",-9.412827956935748],["▁should",-9.41305824007584],["▁runs",-9.41603314002172],["▁better",-9.416386330084435],["▁unit",-9.417105954738016],["▁episodes",-9.417524226735011],["▁met",-9.419645217687073],["▁pro",-9.41988558705652],["▁medal",-9.42164790750425],["▁russian",-9.42299738572453],["▁featuring",-9.423547287062418],["▁help",-9.425982174780843],["▁opening",-9.42720483038197],["▁shows",-9.427473152413056],["▁rather",-9.428315412074006],["▁put",-9.429469656364835],["▁give",-9.42978950042012],["▁spanish",-9.430450515462176],["▁traditional",-9.431500518482393],["▁limited",-9.432635638687328],["▁queen",-9.432700052975834],["▁decided",-9.433244885221256],["▁chinese",-9.43380441556702],["▁weeks",-9.43531542870052],["▁hotel",-9.43576926936517],["▁personal",-9.436531468994112],["▁historical",-9.43863478529155],["▁peak",-9.440408980669424],["▁prize",-9.444298558121451],["▁approximately",-9.444824170517071],["▁process",-9.445081413536196],["▁federal",-9.446046226457591],["▁section",-9.44629781039059],["▁competition",-9.446442003810391],["▁governor",-9.44826814779322],["ham",-9.450489571340826],["▁draft",-9.450657857464982],["▁guest",-9.451501095859651],["▁scene",-9.452120122305736],["▁provided",-9.452319099559496],["▁idea",-9.453934149236256],["▁either",-9.454276136829767],["▁feet",-9.456291249455042],["▁forest",-9.460378987553083],["▁castle",-9.46082488837726],["▁ended",-9.46107952259716],["▁average",-9.461544702684575],["▁ran",-9.46295370099792],["▁represent",-9.463412207897276],["▁manager",-9.464570574984196],["▁gun",-9.466201928512428],["▁captain",-9.466878470045993],["▁artists",-9.467511762722989],["▁institute",-9.470015017542083],["least",-9.470823785145026],["▁franchise",-9.471753216502336],["▁effort",-9.471935932940209],["▁numerous",-9.472428636926988],["▁outside",-9.47242907909619],["▁annual",-9.472838992502563],["▁nominated",-9.47390214155955],["▁famous",-9.475125322877489],["▁mo",-9.47695819678521],["▁hospital",-9.478201193805406],["▁advance",-9.478371515073269],["▁require",-9.478629932355652],["▁introduced",-9.478680875130928],["▁shot",-9.479107140137144],["▁friend",-9.480583188346593],["ver",-9.481682408228655],["▁self",-9.482194083414004],["▁ice",-9.484123930713368],["▁square",-9.48486282930062],["▁rose",-9.48488178730746],["▁soon",-9.485320356531412],["▁today",-9.485381660944736],["star",-9.486219930916963],["▁room",-9.486903055432624],["▁lower",-9.486997917548956],["▁boy",-9.487700346820755],["▁study",-9.48820045343401],["▁brought",-9.489080365147064],["▁felt",-9.489115767668077],["▁culture",-9.489789033265682],["▁future",-9.490298511623106],["all",-9.49196605671599],["▁jackson",-9.492800153380028],["▁plant",-9.493658733672234],["▁guitarist",-9.494883949025956],["▁passe",-9.495526523533862],["▁champion",-9.497019638789782],["▁direct",-9.497138469626403],["▁operation",-9.497927743732763],["▁starred",-9.499789478188116],["▁committee",-9.5003792674471],["▁africa",-9.501126432939564],["▁staff",-9.504659552574504],["▁empire",-9.504935945136946],["ought",-9.505133892364556],["▁move",-9.506796314694649],["▁hockey",-9.506833160550917],["▁squadron",-9.507398402638309],["▁child",-9.508273157926611],["▁capture",-9.508473304710128],["▁stories",-9.509987277228923],["▁active",-9.511760016307402],["▁sun",-9.511983136000842],["▁genus",-9.51228188243212],["▁vocals",-9.514304969234669],["▁host",-9.514699734127085],["▁republic",-9.515880868303032],["▁news",-9.517080652726234],["▁ca",-9.519446545633665],["▁face",-9.51978138022284],["▁press",-9.519791711428192],["▁past",-9.519945124647387],["ling",-9.520211842614842],["▁bank",-9.521792569243194],["▁mexico",-9.523604787076286],["ler",-9.525159485165611],["wood",-9.525774899296634],["▁hand",-9.52603966229],["▁becoming",-9.526619455746513],["▁claim",-9.527623144818056],["▁fame",-9.528528461546756],["▁anti",-9.528625394005566],["▁professor",-9.52985100277134],["▁represente",-9.530366538559267],["com",-9.530528785547029],["▁golden",-9.532402523813875],["▁comic",-9.534693061270048],["▁mary",-9.536330801190982],["▁port",-9.536565978624346],["▁mm",-9.537131131474842],["▁soviet",-9.53972548632442],["▁headquarter",-9.540937178668967],["▁rest",-9.541538694922584],["▁piece",-9.541974880166654],["▁come",-9.54277883624279],["▁cost",-9.54332490638555],["▁jack",-9.54379749215841],["▁problem",-9.544139671831216],["ur",-9.54540069882236],["▁documentar",-9.545881532032656],["é",-9.54736044388406],["▁fleet",-9.549096131987955],["▁review",-9.549167015986985],["▁whom",-9.549965313053058],["▁crew",-9.553584934193832],["▁spent",-9.553599470284745],["▁ka",-9.553929354985062],["▁ireland",-9.555974120524958],["▁living",-9.557862578254854],["▁food",-9.558264002161478],["▁michigan",-9.5602540518127],["also",-9.562036452452412],["▁praise",-9.562155556150632],["▁pacific",-9.56298066235974],["wa",-9.56327230276272],["▁seat",-9.564009034408814],["▁dog",-9.564041369545972],["▁carolina",-9.566031089269597],["▁lyrics",-9.566855542742411],["▁fantasy",-9.566942230888582],["▁dark",-9.567515531564291],["▁selected",-9.56783630919418],["▁earth",-9.56868070489131],["▁notable",-9.56920718223331],["▁raise",-9.571330991452143],["▁hard",-9.574675512789383],["▁province",-9.576609965095097],["▁musician",-9.577304613737672],["▁irish",-9.579889458216767],["▁itself",-9.580469821077438],["ment",-9.581142147740378],["▁running",-9.581201815103634],["▁studios",-9.582165975735888],["▁primarily",-9.582375714850071],["▁material",-9.584093746059123],["▁prince",-9.58584660277193],["▁mixed",-9.586019635788244],["▁primar",-9.58779751845728],["▁scott",-9.58997606042775],["▁taking",-9.590184088311272],["▁quick",-9.59086051482784],["▁product",-9.591701591792145],["▁dead",-9.591959674511012],["▁flight",-9.59295643934534],["▁atlantic",-9.59297768231481],["▁bar",-9.594459042531888],["▁trade",-9.594725997739014],["▁length",-9.595007908710077],["▁plot",-9.599076752645669],["▁jones",-9.60034713756863],["▁must",-9.60059620560045],["▁condition",-9.60107295122997],["▁census",-9.602699679613496],["▁winter",-9.60499102146119],["▁chris",-9.605520034042105],["▁edward",-9.60562522874253],["▁rule",-9.605897235082196],["▁jersey",-9.610594370719063],["▁hours",-9.610779068894278],["▁louis",-9.611356023307051],["▁goal",-9.611369163177612],["▁reviews",-9.614411959103466],["▁frank",-9.614909215295045],["▁fictional",-9.61703802062914],["▁month",-9.61782900406963],["▁sixth",-9.618967780748385],["▁pilot",-9.619774299229004],["lin",-9.620561897887471],["▁difficult",-9.621397799628811],["▁money",-9.622526813224386],["▁jr",-9.622857407015738],["▁need",-9.6244247705789],["ten",-9.625509654717046],["▁nomination",-9.62592269559287],["▁commander",-9.627185490656936],["▁latter",-9.627457882609765],["▁defeate",-9.62780607595188],["billboard",-9.628820260526645],["▁natural",-9.629405927065047],["▁operations",-9.629809442290858],["▁elected",-9.630002429428172],["▁minor",-9.630228642543187],["▁senior",-9.631011525230043],["▁premiered",-9.632139352163255],["▁married",-9.632667617716065],["▁bo",-9.632965938087487],["▁positive",-9.633900527854328],["▁join",-9.635806248139623],["▁thus",-9.635879956499831],["▁facilit",-9.636013022377083],["▁medical",-9.636681916006282],["▁soundtrack",-9.638406623401664],["▁concert",-9.643051080783476],["appointed",-9.643752134719714],["▁listed",-9.643756896827348],["▁above",-9.644054070705764],["▁manage",-9.644330435920123],["year",-9.644798710359945],["▁practice",-9.645005378209913],["▁location",-9.645139447721242],["▁fund",-9.645798895565626],["▁britain",-9.6465917818916],["▁inspired",-9.647827342342254],["▁allowe",-9.6479740285229],["▁placed",-9.650477080910257],["▁via",-9.651518762728358],["▁variety",-9.651856110718075],["ability",-9.652547851419705],["▁sub",-9.652596571969587],["▁nba",-9.652820556043627],["▁bbc",-9.65283547161016],["▁decision",-9.654074436702272],["▁minutes",-9.656145169919244],["der",-9.657790735597366],["▁guns",-9.657851525612648],["▁computer",-9.65814083613266],["▁develop",-9.65841160642373],["▁separate",-9.659228851343702],["▁seasons",-9.659478690573764],["▁related",-9.659645016106476],["▁crime",-9.659692815795118],["▁theme",-9.660185455756476],["▁heart",-9.6602188365853],["▁johnson",-9.660461959458562],["▁sequel",-9.661010812143587],["▁defeat",-9.661338697042629],["▁parts",-9.66215344441894],["▁sister",-9.662169342042365],["▁islands",-9.662212292339987],["▁era",-9.665024601893249],["▁wante",-9.665642159228424],["▁contemporar",-9.667027810689682],["▁degree",-9.667030291251802],["▁earned",-9.66764457145885],["▁double",-9.66766906903484],["▁size",-9.66801096250706],["▁launche",-9.66830232180644],["▁worldwide",-9.66933354626162],["▁retired",-9.671866570120102],["▁complex",-9.672772692131732],["▁presente",-9.6743144472964],["▁your",-9.674420572393636],["▁twenty",-9.67453845981232],["▁tower",-9.674822777188153],["▁immediate",-9.675354120453646],["▁mostly",-9.67642892364414],["▁consists",-9.67691306255073],["▁turn",-9.67895573207377],["▁copies",-9.680215841720136],["ford",-9.681370450548028],["▁avenue",-9.682732554095905],["▁corporation",-9.682879982092196],["ng",-9.6839748933076],["▁wales",-9.684583314099562],["▁boston",-9.684664771509658],["▁greek",-9.685713850888163],["▁silver",-9.685886063629],["▁camp",-9.686321572006374],["▁individual",-9.687228231447715],["▁possible",-9.687356362258589],["genre",-9.687644635731369],["les",-9.689440765804251],["▁williams",-9.689573343605836],["▁audience",-9.6896328323796],["▁troops",-9.6896871761088],["▁mc",-9.690375601696909],["▁alternative",-9.691839327870303],["per",-9.692192695800708],["ally",-9.692936596796836],["▁battalion",-9.693022003154091],["▁horror",-9.694535246163154],["▁got",-9.694537620363574],["▁ranke",-9.69466363324586],["▁key",-9.69582582014836],["▁especiall",-9.696286885960506],["▁creek",-9.696995922933734],["▁iii",-9.697090778444942],["▁wild",-9.697486460875494],["▁kong",-9.697548131436156],["▁course",-9.698061636577911],["▁god",-9.700575790190314],["▁male",-9.7012784339324],["▁pennsylvania",-9.701779752926564],["▁lord",-9.702866690392618],["▁multi",-9.703056815162098],["▁breed",-9.704197358191571],["▁saint",-9.7044145061742],["ary",-9.70466551052056],["▁nation",-9.705033214167464],["▁typical",-9.707018011108865],["▁deep",-9.709315834346713],["▁participate",-9.709676626662665],["▁zealand",-9.710767366365106],["▁garden",-9.711130569576817],["▁information",-9.71198216117577],["▁wall",-9.713685443347972],["▁pa",-9.714875146909066],["▁fall",-9.715861051255358],["han",-9.7161167216006],["▁produce",-9.716169903711776],["▁brief",-9.717747381346122],["▁speed",-9.719459495241091],["▁sam",-9.719590493071006],["▁financial",-9.720565634837122],["town",-9.722286236295204],["▁legal",-9.72246048069545],["▁greates",-9.723849800964606],["▁newspaper",-9.7242589990104],["▁actual",-9.72448225730925],["▁turne",-9.725363344729788],["▁digital",-9.726075451128375],["▁columbia",-9.726637126109187],["▁extended",-9.72790576443051],["▁brothers",-9.728002799049436],["▁going",-9.729858961293658],["▁relative",-9.729966943932247],["▁regional",-9.731887580952826],["▁acting",-9.73445262169102],["▁editor",-9.734520776048187],["▁congress",-9.734881446870936],["▁entered",-9.735100974217032],["▁buildings",-9.735790056881058],["▁serves",-9.736972662190068],["▁pictures",-9.7378793890812],["▁peake",-9.73897595152414],["▁surface",-9.739102890145032],["▁master",-9.739235663977215],["way",-9.739296407336267],["▁foreign",-9.740701486817285],["▁beach",-9.74079534431731],["▁prominent",-9.742755311722378],["▁infantry",-9.742874350018344],["tic",-9.742966931734085],["▁technology",-9.7438478671849],["▁contract",-9.744038098627804],["▁deal",-9.74435707033588],["▁groups",-9.745045659583344],["▁larger",-9.745434226443855],["▁failed",-9.745490955999268],["▁naval",-9.746765443582492],["▁agree",-9.749049317788804],["war",-9.74976503909645],["▁provide",-9.753426731110071],["▁del",-9.753673049616385],["ier",-9.754478391550135],["▁ohio",-9.754947951527276],["▁bad",-9.75509649910085],["▁border",-9.755265824308893],["▁stephen",-9.755902968311874],["▁ball",-9.756277668264996],["▁forced",-9.75750237385085],["▁nature",-9.758872528149944],["▁article",-9.758897336414424],["▁machine",-9.760488426237568],["▁helpe",-9.76159046312634],["▁higher",-9.761983208042052],["majority",-9.763046609246397],["▁upper",-9.764130286333906],["▁alongsid",-9.764802439378004],["▁cut",-9.765144973724796],["▁credit",-9.76516800280527],["▁friends",-9.765268081049504],["▁account",-9.76573453483331],["▁write",-9.76629509608035],["▁sir",-9.76729551272183],["▁mission",-9.76735385133119],["▁horse",-9.770562037754788],["▁songwriter",-9.77063063089274],["▁standard",-9.77091970448337],["▁box",-9.77220816190772],["for",-9.772954309217752],["▁republican",-9.773105601661737],["▁hop",-9.77343158540168],["▁christmas",-9.775565910083664],["▁portion",-9.775692742703065],["▁meeting",-9.776509794908112],["▁con",-9.777376467345672],["▁serving",-9.777661038240312],["▁politician",-9.778573558963387],["▁foundation",-9.778993110700448],["▁enter",-9.780202023769474],["based",-9.781627118644913],["ance",-9.781937272569673],["▁graduate",-9.782113137607976],["▁schools",-9.782241889329956],["▁certain",-9.782525431959336],["▁effects",-9.783404384575851],["▁georgia",-9.78366009066278],["▁word",-9.783743842714555],["▁ultimate",-9.784014392775898],["▁winner",-9.784649016153082],["▁prime",-9.786398716104127],["▁romantic",-9.786574868401743],["▁poor",-9.787806675396942],["off",-9.789008880254986],["▁want",-9.78985205432667],["claimed",-9.790070971252282],["▁joseph",-9.791283237823816],["▁reason",-9.79212641455175],["▁lack",-9.793843311051573],["▁appearances",-9.795430936996205],["▁response",-9.795546815163416],["▁mass",-9.795610212774504],["▁companies",-9.796450245650185],["▁paris",-9.797770210154892],["▁management",-9.799131262569936],["day",-9.800365548665935],["▁refer",-9.800747282917326],["▁corps",-9.800773488078086],["▁keep",-9.80098620134061],["▁purchase",-9.801043254255957],["▁interview",-9.801360182720783],["▁du",-9.80267827331448],["▁background",-9.803491279963904],["▁intended",-9.804210741015618],["con",-9.804429755818663],["▁fighter",-9.804502231510908],["▁latin",-9.804746584083851],["▁founder",-9.805941584207712],["▁catholic",-9.807964284520978],["ive",-9.808880778873888],["▁greater",-9.809643331003198],["▁vocalist",-9.810008319847212],["▁respectively",-9.81057554210806],["▁regiment",-9.81115225638328],["▁mike",-9.811415649521573],["▁subject",-9.81143261902378],["▁trial",-9.811545980126592],["▁frequent",-9.811674603988362],["ger",-9.811949083434971],["▁cities",-9.8120316995165],["▁store",-9.812648756607103],["▁memorial",-9.812961515604172],["▁sales",-9.8138494543636],["▁hong",-9.814760386642886],["▁historian",-9.81518122027036],["▁starting",-9.816801225261043],["▁lines",-9.81932649389907],["▁focus",-9.819768186661552],["▁athletic",-9.820013796186403],["▁energy",-9.821596182346774],["▁follows",-9.822028840313276],["▁hip",-9.822215083188867],["▁enough",-9.823371976454318],["▁propose",-9.824031612707032],["more",-9.824469130178498],["▁status",-9.824694531043257],["▁issues",-9.826686491969651],["▁parliament",-9.826900071237034],["▁takes",-9.82720714229031],["▁evidence",-9.827695896098325],["▁studies",-9.828259132631954],["°",-9.830631900252431],["▁murder",-9.830692558529774],["red",-9.832844221042436],["changed",-9.833210432412304],["▁wood",-9.833468621333772],["mer",-9.833601686439907],["ll",-9.83375764268897],["ate",-9.834784305687505],["ill",-9.836673827203246],["▁commission",-9.83751717840524],["▁ocean",-9.837650444736946],["▁tom",-9.839348096196916],["▁estimated",-9.839708913434484],["▁hoste",-9.840328234993336],["▁attende",-9.840506231410274],["▁defense",-9.840791908274088],["▁brand",-9.844510258050992],["▁economic",-9.845325107237455],["▁reduce",-9.845414051617466],["▁saying",-9.845630104239342],["▁remains",-9.84721028942784],["▁pass",-9.848243534067484],["▁pay",-9.848522780814202],["▁vice",-9.849076161473524],["▁dvd",-9.849180324637093],["side",-9.849551870365389],["▁alread",-9.849754940034972],["▁jim",-9.850500703270557],["ized",-9.850535365725944],["let",-9.850696861687991],["▁dan",-9.852213799343543],["▁leaving",-9.852474136502256],["▁secretary",-9.852595435849922],["her",-9.853640638295802],["▁performances",-9.853654247115667],["selves",-9.854999524001345],["▁charge",-9.855229449591803],["▁italy",-9.855902101418502],["▁championships",-9.856694815145431],["▁report",-9.856879897528298],["▁francisco",-9.856884366079452],["▁fact",-9.858168597350993],["▁mph",-9.858549242952806],["▁multiple",-9.858648267038834],["▁seventh",-9.859070365697384],["▁taylor",-9.859131099301727],["house",-9.859483036396576],["▁brigade",-9.85995143196263],["▁assistant",-9.860752958025364],["▁ray",-9.861432647720642],["▁daily",-9.861893740231004],["▁done",-9.863057756322286],["of",-9.863163350984642],["▁concept",-9.863373235485778],["▁dutch",-9.864458965303212],["line",-9.864492153765484],["▁ba",-9.865423280560735],["▁recognize",-9.867472107519625],["▁wind",-9.867627065011025],["▁volume",-9.868435133078226],["▁joe",-9.868440595300513],["▁fighting",-9.869000022427931],["▁forward",-9.86911811116008],["▁steve",-9.87039462383924],["▁wing",-9.87110565090873],["head",-9.872092569084163],["▁impact",-9.873824824111884],["▁scotland",-9.875607895009573],["▁vehicle",-9.875739062955784],["▁schedule",-9.87647490152034],["▁asia",-9.878138387810855],["▁plants",-9.878671897562],["▁mainly",-9.87941761916842],["▁picture",-9.88591185171494],["▁electronic",-9.885917497541763],["▁moving",-9.886482935755788],["▁view",-9.887004983874936],["▁fight",-9.887027703750578],["▁ben",-9.888543409682748],["▁oil",-9.889110521169007],["ze",-9.889227591488073],["▁democratic",-9.889419626062548],["▁look",-9.890844642054956],["▁pressure",-9.891005954171604],["▁cm",-9.89258469746759],["▁fellow",-9.893153004591689],["▁bob",-9.893586612427349],["▁loss",-9.89386152501536],["▁planne",-9.894056410019603],["▁told",-9.89449195913764],["▁bass",-9.894683359491308],["▁fans",-9.894820818766489],["▁changes",-9.89493867612679],["▁screen",-9.89702566745699],["▁cricket",-9.897117082445137],["▁longer",-9.89724218962726],["▁las",-9.897686377876504],["▁junior",-9.89786952258462],["“",-9.899558570812722],["▁call",-9.901173407387589],["▁justice",-9.90153144734661],["▁matches",-9.901589416313318],["▁poet",-9.903202884417398],["▁mean",-9.903449672294697],["▁break",-9.90375725282707],["▁cultural",-9.904847016623467],["▁carried",-9.90541127275292],["▁charts",-9.905586390419426],["▁classic",-9.905652705936031],["▁theory",-9.90641833869789],["▁student",-9.907018859047964],["▁fair",-9.907936329574635],["▁closed",-9.908105185158997],["▁grant",-9.908302942328442],["▁origin",-9.908847711450289],["▁formerly",-9.90963703614613],["▁animation",-9.910023627912906],["”",-9.910160714799034],["▁motion",-9.911047705064876],["▁administration",-9.911199424285446],["▁online",-9.911294663614331],["▁figure",-9.911548604933651],["▁religious",-9.912644085724915],["▁gaine",-9.913522024772517],["▁manchester",-9.913617451990795],["▁secret",-9.914221507996135],["▁wrestling",-9.91669396852131],["▁purpose",-9.917289280084336],["well",-9.918650178935204],["▁physical",-9.919626401436746],["▁ordere",-9.91982136306196],["▁global",-9.92168428836708],["▁iron",-9.922455545626931],["▁supporte",-9.92490139170238],["▁simply",-9.925142590551252],["▁massachusetts",-9.925272454155705],["▁scottish",-9.92611995502726],["▁northwest",-9.926524705263612],["▁marriage",-9.926809664149433],["▁campus",-9.927365679121207],["▁compilation",-9.929458393814386],["▁emperor",-9.931724236958267],["▁blood",-9.932302923983857],["▁train",-9.933632906043536],["▁reception",-9.933688464514756],["▁duke",-9.934774104187214],["▁effect",-9.935549015215924],["▁passenger",-9.935821562550432],["▁walt",-9.937940230859049],["▁adult",-9.938664025130077],["▁vegas",-9.939238427573525],["▁ex",-9.93939873954516],["▁ncaa",-9.939703920476097],["▁senate",-9.940898254261365],["▁challenge",-9.940979097007716],["▁stop",-9.941644314859303],["▁means",-9.942860638337992],["▁responsible",-9.943374019865145],["▁exist",-9.94347817332473],["▁oldest",-9.943627136509996],["▁ancient",-9.944424296375043],["▁guard",-9.946071655609552],["▁champions",-9.946253203773814],["▁website",-9.94631671026639],["▁combat",-9.94635708852336],["▁spring",-9.946400216792233],["▁library",-9.947388747160469],["ber",-9.947516259093357],["▁covere",-9.948265684497033],["▁scenes",-9.94872348815039],["out",-9.94892409772702],["▁consist",-9.949724821971923],["▁rare",-9.949788506269837],["▁property",-9.949922349335129],["▁amount",-9.950649016948782],["▁know",-9.951075177774836],["▁engine",-9.951126508452354],["▁titles",-9.951352433258611],["▁register",-9.951446105837862],["▁bc",-9.951856983619615],["▁journal",-9.952028899611795],["▁hits",-9.952270343017574],["▁firm",-9.952587679622477],["▁olympic",-9.9526797793539],["▁yet",-9.952722352352806],["▁mall",-9.953010331555818],["▁stand",-9.953229300302334],["▁attention",-9.953730422654262],["▁formation",-9.954861570757052],["▁cyclone",-9.957351990604431],["que",-9.958005873604694],["▁honor",-9.958083690415172],["▁debute",-9.95904877697665],["kin",-9.959349899486826],["£",-9.960039819900024],["▁olympics",-9.96030518423933],["▁rate",-9.960336767735278],["▁canal",-9.960797464417508],["▁compared",-9.961031176899526],["▁illinois",-9.964926094304897],["▁winds",-9.9651266325973],["▁territory",-9.965512047164838],["▁morning",-9.96587001880035],["▁divide",-9.965970024503836],["uk",-9.966003303098656],["▁discovere",-9.966552929601654],["▁occurre",-9.96695795985937],["▁bell",-9.967506604784974],["▁railroad",-9.968302287951692],["ran",-9.96932001764258],["▁ring",-9.969452631640008],["▁nfl",-9.970066129727137],["▁reach",-9.970128691064938],["▁shape",-9.970465855591808],["▁rating",-9.971076942564544],["ard",-9.971156459327997],["▁escape",-9.9716144491342],["▁urban",-9.971907669762906],["▁improve",-9.9721037842215],["▁writers",-9.973214413540108],["▁meaning",-9.973503779203702],["▁literature",-9.97565713656732],["▁conflict",-9.976633163990297],["▁inside",-9.977899750262086],["berg",-9.9786566613885],["▁chairman",-9.97875067351606],["▁constructed",-9.978959441339612],["▁premier",-9.979490054738784],["▁mac",-9.980012127869342],["▁comics",-9.98197612616412],["▁highly",-9.982450741052467],["▁metropolitan",-9.982757888877368],["▁authorit",-9.98282200551998],["▁access",-9.983820813651992],["▁percent",-9.984141631865622],["▁source",-9.985274117416232],["▁racing",-9.986765520085912],["▁direction",-9.987221736217336],["▁declare",-9.987643039113822],["▁shown",-9.987702064360144],["▁lived",-9.988611340124017],["▁effective",-9.98910585944139],["▁distribute",-9.9922691712203],["▁branch",-9.992932530634071],["▁probabl",-9.994166406746782],["▁might",-9.994179076561707],["▁stock",-9.994606971449016],["▁husband",-9.994930079599378],["▁always",-9.995017429713482],["▁goals",-9.995591717654357],["▁drummer",-9.996782733297447],["▁supreme",-9.997017952610792],["▁true",-9.997159245660542],["▁soldiers",-9.997348924049149],["▁joint",-9.998309334861684],["▁philadelphia",-9.998657477427788],["▁pair",-9.9989939672597],["units",-9.999528994684056],["▁kind",-10.00047467386934],["▁principal",-10.00073752607896],["▁tony",-10.00090745358742],["▁combined",-10.001248986564583],["▁polish",-10.001635771720512],["▁script",-10.00227694751761],["▁hour",-10.004584124321294],["▁peace",-10.00510327613402],["▁hundred",-10.006118279942516],["▁drive",-10.006411037807377],["▁lives",-10.006634663216364],["▁security",-10.006961399966247],["▁edge",-10.007032642277084],["▁increasing",-10.007566742890935],["▁visual",-10.007861325799952],["▁arrived",-10.008289779734229],["▁visit",-10.00831289122778],["▁consecutive",-10.008687699231338],["▁serve",-10.009725317382296],["▁policy",-10.01025494459585],["▁whethe",-10.010313911629252],["▁depression",-10.010318119959482],["ker",-10.011492891899778],["+",-10.01361205214118],["▁names",-10.013934423255384],["▁bond",-10.01397223780812],["▁resort",-10.01406608705549],["▁whole",-10.014335342965415],["▁systems",-10.014852911243535],["▁productions",-10.015163908051909],["▁composition",-10.015305292210016],["▁destroye",-10.015865633193783],["▁restaurant",-10.016071228601248],["▁generation",-10.016931077412847],["▁succeed",-10.017386393173812],["▁jean",-10.01755717374942],["▁folk",-10.017626943120126],["▁von",-10.017779642628634],["maller",-10.018183841937532],["▁aske",-10.01845509048532],["▁youth",-10.019509627537998],["▁slow",-10.019613754957064],["wedish",-10.020315694172435],["▁unlike",-10.02242974891668],["gen",-10.022965191605902],["▁arena",-10.02306526205646],["▁measure",-10.023880746107071],["▁fell",-10.024134303392191],["▁spain",-10.02418787333576],["▁inter",-10.02604676292955],["▁marked",-10.02622219242988],["▁leave",-10.026627948927516],["▁height",-10.028576834318738],["▁oklahoma",-10.028631766963748],["▁hollywood",-10.02885358085582],["▁reserve",-10.029477809652308],["▁content",-10.030138660325465],["▁mexican",-10.030342710407616],["▁screenplay",-10.031365198914251],["▁category",-10.033535194591533],["▁jazz",-10.035423351562944],["▁below",-10.03569822792951],["▁ke",-10.035784156568072],["▁temple",-10.035984328475797],["▁wilson",-10.036057456575698],["▁extensive",-10.03620091925598],["▁designate",-10.037884827246469],["▁adaptation",-10.038028862682182],["▁conclude",-10.038234322994848],["▁actors",-10.039396358512212],["life",-10.039869905826222],["▁defence",-10.040458126032869],["▁moon",-10.041500096357884],["▁painting",-10.041774455905562],["▁victoria",-10.041794385675043],["▁ko",-10.04215773657338],["▁mountains",-10.04272812935976],["▁chain",-10.042766920390688],["ium",-10.043499715352423],["▁care",-10.043835651785123],["▁theater",-10.044562198528933],["▁offere",-10.045486286565422],["▁cell",-10.046218523026868],["▁incorporate",-10.046429986149462],["▁pan",-10.04802827592708],["▁platform",-10.048174627493252],["▁approach",-10.048262226924408],["▁normal",-10.049130265918258],["songwriter",-10.050259330483875],["▁officers",-10.052828394824136],["▁ar",-10.05454057057894],["▁letter",-10.05493301790944],["▁occur",-10.054954844417924],["▁vocal",-10.05517398551545],["▁fashion",-10.056646985418247],["▁rough",-10.057541613683256],["▁birth",-10.058550095246972],["▁trail",-10.059175149120245],["▁elizabeth",-10.059825029185475],["gan",-10.060611060927306],["▁follow",-10.06073397469927],["▁bi",-10.06232350216948],["▁kansas",-10.063927187018605],["▁davis",-10.063930770510796],["▁tree",-10.064119419188426],["chi",-10.065577044938474],["▁andrew",-10.066438581095705],["▁older",-10.066666046850576],["▁northeast",-10.067225268040827],["▁meet",-10.068045124685511],["▁brian",-10.06855707727476],["▁forms",-10.070657483493214],["▁lady",-10.070677714358528],["▁adapted",-10.071220270579516],["▁hold",-10.071404492945495],["▁extreme",-10.072168833199637],["▁organize",-10.074765410475258],["▁directly",-10.07610058878494],["▁competed",-10.076466125808151],["▁transport",-10.077067446943447],["▁alexander",-10.077190333826698],["▁designer",-10.07825963420846],["▁southeast",-10.078825537502002],["▁kentucky",-10.07918869020691],["▁distance",-10.079829710321135],["▁setting",-10.079967899318747],["▁lewis",-10.080901982321828],["▁contribute",-10.081845683062957],["▁rapid",-10.083824922629146],["▁makes",-10.084033132230466],["▁tennis",-10.085125317455462],["▁credite",-10.085605127476352],["▁travel",-10.085674617457729],["▁something",-10.0862721188435],["▁minnesota",-10.086595903195123],["▁refuse",-10.08698883115187],["▁foot",-10.087004853002542],["▁harry",-10.088288069626724],["▁orchestra",-10.089983302533552],["▁mount",-10.091337357739407],["▁gas",-10.091458305679962],["▁des",-10.09312779233348],["▁reference",-10.093626979358271],["▁say",-10.093857072141152],["▁tim",-10.095287777008322],["▁rise",-10.09543137952803],["▁earl",-10.095475075047146],["old",-10.09606294022682],["▁flying",-10.096661329491008],["▁removed",-10.09685789488475],["▁literar",-10.097829559254526],["▁punk",-10.09859101922437],["▁question",-10.09869084913161],["▁promotion",-10.099636865737091],["▁classical",-10.099651313858317],["operating",-10.101788577838796],["▁versions",-10.101911248841636],["▁things",-10.104365502869513],["▁mine",-10.104405915329798],["▁quarter",-10.104734054728578],["▁ending",-10.104842607148043],["▁semi",-10.105193310731332],["▁yards",-10.105454583790944],["led",-10.106614325829732],["▁miss",-10.10690822525405],["▁academic",-10.109309926917328],["▁potential",-10.109564686832782],["mar",-10.110804196936876],["▁novels",-10.110872899238418],["▁nations",-10.111197379113491],["▁sky",-10.111388010079745],["new",-10.111592806469988],["▁ceremon",-10.112225945403502],["▁receive",-10.114754183648424],["▁split",-10.115052208981352],["▁confirm",-10.115998408886796],["▁compete",-10.116423029699714],["▁russia",-10.116568770349492],["▁miller",-10.11743384765528],["▁portraye",-10.11754854083949],["▁duo",-10.1185855326329],["▁regard",-10.11862827555952],["▁exchange",-10.11926870151465],["▁fan",-10.119280133523196],["▁eighth",-10.119585486397884],["▁suffere",-10.12030113642408],["▁thriller",-10.120395366249925],["▁vi",-10.120636619393066],["▁prison",-10.121199332731631],["▁younger",-10.121552902244666],["▁assembly",-10.122154233775534],["▁promoted",-10.12313428434164],["▁lieutenant",-10.123331378523067],["▁provides",-10.1235510177333],["▁acquired",-10.124077179960183],["▁clear",-10.124252140535951],["▁reveale",-10.12477944856541],["▁thousand",-10.125002274372132],["ang",-10.1259944727414],["▁format",-10.12603706619904],["▁speak",-10.12604116312318],["▁rename",-10.126133146326596],["▁korea",-10.126703672773177],["▁vietnam",-10.12747847252833],["▁matt",-10.12827160531331],["▁slight",-10.130383794958888],["▁connect",-10.130749629867651],["▁dedicated",-10.130918941808662],["▁moment",-10.131656039792848],["▁agent",-10.132532302695603],["▁formula",-10.134685038915707],["▁avoid",-10.13532219499722],["▁tells",-10.135357036409092],["▁weekly",-10.135804167563872],["▁southwest",-10.137030236916548],["▁color",-10.137034878275236],["▁adventure",-10.138503745780437],["▁capacit",-10.138665031339375],["▁steel",-10.139847244967555],["▁page",-10.139884103798284],["▁defend",-10.140256367581603],["▁words",-10.140454698341111],["▁twice",-10.140547674761414],["▁data",-10.140578745849387],["▁prevent",-10.140729610224968],["▁scor",-10.140765735237698],["▁reign",-10.141122802031107],["▁industrial",-10.142363101211096],["▁revolution",-10.142969010430344],["▁sport",-10.143426636195429],["▁cat",-10.14344830841401],["reality",-10.143586038422375],["▁teacher",-10.14387199812262],["▁yellow",-10.14400435017368],["▁consiste",-10.144607820487025],["▁estate",-10.145262871796042],["coming",-10.145635392416237],["▁share",-10.14654850536307],["▁sex",-10.146810273722592],["▁wi",-10.14855110846518],["▁downtown",-10.14863766801545],["▁imperial",-10.148682073039394],["▁universal",-10.14869795426808],["▁universe",-10.14893976529874],["▁situation",-10.14955324525887],["▁billboard",-10.149980944612985],["▁arthur",-10.150434990909698],["▁marine",-10.151899429135904],["▁missouri",-10.152688713381336],["▁judge",-10.153243635656777],["wise",-10.15404306333815],["▁beat",-10.15422131732989],["▁offensive",-10.155772663842432],["▁daniel",-10.156958197516987],["▁harrison",-10.157048491540266],["quality",-10.1580370819241],["▁publication",-10.158778362399698],["▁minute",-10.15925793681046],["▁howard",-10.15930603934508],["filmed",-10.16014817862124],["▁agency",-10.160694877717672],["▁zone",-10.161006162699536],["▁surrounding",-10.16102030571751],["▁creation",-10.162007239895514],["▁oxford",-10.162741778027897],["▁rapper",-10.162756858979067],["▁boys",-10.162767032992251],["▁sequence",-10.163415314344707],["▁die",-10.164243248099162],["▁partner",-10.165282722821129],["▁twelve",-10.165419360183158],["▁swift",-10.165775485642476],["▁piano",-10.166109316490813],["▁toronto",-10.166702301002411],["▁ga",-10.166863946927686],["▁selection",-10.167537502840151],["▁begins",-10.168069378986146],["▁wa",-10.16844080740533],["▁nor",-10.169657679552902],["▁achieved",-10.170748843431673],["▁severe",-10.170825900245337],["▁think",-10.17086742125914],["▁kim",-10.171425423523598],["▁giving",-10.17174997434177],["▁specific",-10.17324798191654],["▁parents",-10.173681277112411],["▁selling",-10.174377326990502],["▁indicate",-10.174591026660352],["▁choice",-10.1749649447556],["▁warner",-10.175139871411812],["▁traffic",-10.175765877927152],["▁weather",-10.177371833394709],["▁detail",-10.177686741347497],["▁job",-10.178300993757045],["▁animals",-10.17832297524978],["▁nickname",-10.178747152068054],["▁regarde",-10.179041206462166],["▁soul",-10.179605637574335],["▁convention",-10.180435006958136],["▁maintain",-10.180510664814138],["▁activities",-10.181538731536872],["▁houses",-10.181708836859524],["▁code",-10.18210366698356],["▁attacks",-10.182812636655695],["shire",-10.18297701456835],["▁billion",-10.184222291088728],["▁conducte",-10.18454249801821],["▁maryland",-10.184840381234965],["▁comes",-10.187510419746465],["▁rail",-10.187536333518928],["▁farm",-10.188791464871596],["▁build",-10.188861178849766],["mon",-10.188946861002757],["▁distribution",-10.189013945422143],["▁feel",-10.189064901779815],["ell",-10.189511397688475],["▁engineering",-10.19151739058337],["back",-10.191573377377436],["▁derive",-10.191778653025176],["▁define",-10.192267830839356],["most",-10.192321880453877],["reaching",-10.192806256829044],["▁block",-10.193965362445292],["▁palace",-10.195452030079489],["▁ridge",-10.19550517355229],["▁oregon",-10.195818297594544],["▁expected",-10.19583815797309],["▁doctor",-10.196331082998292],["▁recover",-10.19732250865497],["▁indiana",-10.197922781096755],["ex",-10.19828373280577],["▁sexual",-10.198325982246946],["ven",-10.199298725831468],["▁obtain",-10.199588478815247],["▁expansion",-10.200325940541386],["▁cold",-10.20046367482439],["▁singing",-10.201176467009468],["▁tech",-10.201432801535486],["▁wave",-10.201965688966348],["▁fish",-10.20263237045316],["▁mind",-10.203295804711756],["▁cinema",-10.2043280480749],["ette",-10.20465555189203],["▁electric",-10.205123203506345],["▁dream",-10.2052398433686],["▁lane",-10.205428920079674],["▁eye",-10.206067033067344],["▁footballer",-10.20784113143999],["▁playoff",-10.209563138274971],["▁losing",-10.20960474022857],["▁critic",-10.209928670166004],["▁vote",-10.210396155127428],["▁sydney",-10.21151853325104],["▁jo",-10.21153861138955],["▁pe",-10.211817773872594],["▁accepte",-10.21245177043547],["▁journalist",-10.212868654202447],["▁grammy",-10.213268889303992],["▁owner",-10.213295280291373],["▁technique",-10.213643384152055],["dale",-10.214120147540816],["▁disc",-10.21553205053294],["▁usa",-10.215753636160272],["▁invasion",-10.216153896166418],["▁disease",-10.21881308598673],["▁animal",-10.219453828370124],["▁playstation",-10.21997486603508],["▁blues",-10.220485475807576],["ari",-10.220913619483117],["▁settlement",-10.22141367790242],["▁poem",-10.221568873616931],["▁broadway",-10.22164356901801],["▁nbc",-10.223486268240173],["<",-10.224672852132018],["ren",-10.22471520503259],["▁floor",-10.225019643357124],["▁defensive",-10.226060217891485],["▁dean",-10.226669923428965],["ent",-10.226696331550556],["▁value",-10.227925982479032],["▁township",-10.228292299682904],["▁programme",-10.228546313717093],["▁unable",-10.229183048235477],["▁strike",-10.229290918018084],["▁reflect",-10.229416018715703],["▁powerful",-10.230636689240535],["▁coming",-10.231842736705616],["▁offer",-10.232260581357998],["▁image",-10.232492900478585],["▁unique",-10.232856249238951],["▁parish",-10.233670075470092],["▁display",-10.23404315468842],["▁therefore",-10.234107401688822],["▁bus",-10.23450319959546],["▁couple",-10.23489661195112],["▁sense",-10.234956632015578],["▁jay",-10.235729789025266],["▁fine",-10.235903645969554],["▁asian",-10.236100858263914],["▁alan",-10.236342875542348],["▁situate",-10.237360383410754],["▁except",-10.239147779340176],["lan",-10.239530884856345],["▁boat",-10.239878280550265],["cha",-10.240844904060086],["▁moore",-10.242305368697568],["▁liberal",-10.242856124711366],["▁walter",-10.243204621258611],["▁scientific",-10.2432622440135],["▁domestic",-10.244435648996268],["▁identifie",-10.244504685422053],["▁simon",-10.245087473830225],["▁producers",-10.245196436011383],["▁save",-10.24584339719458],["▁yard",-10.245966110221822],["che",-10.246366043647674],["▁consider",-10.247339230082728],["▁broke",-10.247654871022078],["▁enjoy",-10.247878003193264],["▁flag",-10.24808484579859],["▁houston",-10.248176143503716],["▁dam",-10.249502267072064],["▁bands",-10.249645440664152],["▁inc",-10.249776850618078],["▁neede",-10.249895471514671],["▁abc",-10.250284913022949],[">",-10.250599696834287],["port",-10.251257614899938],["▁crown",-10.25143869300356],["▁read",-10.25221109753572],["▁circuit",-10.252254846511049],["▁mar",-10.252626884065243],["▁nuclear",-10.254095580947968],["▁armed",-10.256243753341671],["car",-10.25727418982726],["▁observe",-10.257325082560207],["▁talk",-10.258272861313529],["mann",-10.259898373928063],["▁creat",-10.259901216272086],["air",-10.260527985158523],["john",-10.261066078888796],["▁lies",-10.261491422919908],["▁roll",-10.261733597561747],["▁miami",-10.262002346141598],["▁expande",-10.262011456781837],["▁rain",-10.264122976610349],["▁kill",-10.2644715512921],["▁anthony",-10.26458782249665],["▁planet",-10.264643924306254],["▁mile",-10.265104388766304],["▁metres",-10.26512427367914],["▁adam",-10.265481941033304],["▁independence",-10.26566380961014],["▁grade",-10.266747649783794],["over",-10.266757508547254],["appears",-10.26746840562253],["▁grew",-10.267557541472105],["▁pioneer",-10.268083748973655],["▁mill",-10.268154852718071],["▁coache",-10.26855283687796],["ities",-10.269471269168632],["▁scale",-10.269479980078156],["▁tennessee",-10.269737241827611],["▁paper",-10.26999797610778],["▁su",-10.270012404660156],["▁enemy",-10.27042179589438],["▁kevin",-10.2706275044824],["▁anderson",-10.271163319996834],["ron",-10.271975878555144],["▁globe",-10.2730716165855],["▁broad",-10.273222620157082],["▁chosen",-10.273579939136775],["▁presidential",-10.274633902846627],["▁detroit",-10.27492736960154],["▁engage",-10.275956992394544],["▁li",-10.276509348373828],["▁rules",-10.278128394319786],["transferre",-10.278269115275618],["▁beyond",-10.278943566707197],["water",-10.279983601859236],["▁limit",-10.280253776101452],["▁connection",-10.28118264140602],["▁publishing",-10.281261176739465],["▁par",-10.282125492109223],["▁permanent",-10.283000202480496],["▁allen",-10.28326035556631],["▁stations",-10.283402055248573],["▁gain",-10.283677155988736],["▁screenwriter",-10.284356746063098],["▁clark",-10.285513249960486],["▁technical",-10.285860187441056],["▁droppe",-10.28596238149035],["▁falls",-10.286209467492792],["▁flower",-10.2865986901629],["▁lot",-10.287068119783015],["▁struggle",-10.28766116120786],["▁occasional",-10.28770367385462],["ization",-10.28784109755046],["▁sources",-10.28785445538567],["▁eric",-10.290147274139152],["▁fast",-10.29034216494043],["▁express",-10.29066993886202],["▁spin",-10.291144358776686],["after",-10.29147176152446],["▁agreement",-10.291777684882918],["▁allied",-10.29213387590046],["▁resulting",-10.293988122651369],["▁colorado",-10.294653415710936],["▁comedian",-10.294676427606309],["▁nevada",-10.294854765646296],["▁stay",-10.295202573337416],["▁emmy",-10.29587254796263],["▁hills",-10.295975159914],["▁adopted",-10.296239516686146],["▁studie",-10.297003241518688],["▁dj",-10.297099422096446],["known",-10.29711269881726],["jury",-10.297478942464464],["▁growing",-10.297666672302991],["▁premiere",-10.29937703340623],["what",-10.30046071690831],["▁extend",-10.301767310991538],["▁presence",-10.30220492407895],["▁activity",-10.302909262962311],["▁environment",-10.303514391782617],["▁attacke",-10.303701458115324],["▁equal",-10.3053822705556],["▁expedition",-10.305622602173615],["▁philippine",-10.306732569740952],["▁figures",-10.307414377677691],["while",-10.307426977897377],["▁tons",-10.307440805397498],["▁bird",-10.307468703893948],["venue",-10.30970753265707],["▁norwegian",-10.309714518261988],["▁sitcom",-10.309844225960887],["▁contest",-10.31084422678154],["▁santa",-10.311314019679289],["▁heavil",-10.311365542746062],["▁growth",-10.311638997183964],["ful",-10.311748679753922],["▁landing",-10.311902601706333],["▁establish",-10.312235958946257],["▁engineer",-10.313062618109893],["▁rich",-10.313500610375458],["▁cape",-10.313956213709902],["▁viewers",-10.31514131368003],["▁finish",-10.315472229878644],["▁leaves",-10.315866873172832],["▁snow",-10.316245500957352],["▁basis",-10.317055846602145],["▁crosse",-10.317523159585164],["▁treatment",-10.318139629098486],["▁incident",-10.318574485400928],["▁hire",-10.31974163515502],["▁temperature",-10.32049979581538],["▁mayor",-10.320817554407004],["▁protect",-10.321214542157335],["▁albert",-10.321356300159175],["▁jewish",-10.321427813847205],["▁leg",-10.321655602695344],["▁ja",-10.322671125378792],["▁outstanding",-10.32356788844201],["▁airline",-10.32508406450582],["▁license",-10.326728158744473],["▁encounter",-10.32719908723064],["▁alone",-10.32753930653564],["▁recordings",-10.32816791050198],["▁carl",-10.328743388642536],["▁weight",-10.329230074854893],["▁price",-10.329322262264723],["▁kept",-10.330575609526605],["▁types",-10.33101775948798],["she",-10.331199221838974],["▁covers",-10.33129857317009],["▁ross",-10.331469745401204],["▁criminal",-10.331767423140938],["▁unknown",-10.331887349248436],["▁completely",-10.332323247799833],["▁workers",-10.333113556679638],["▁aspect",-10.333525952257556],["now",-10.33406436398402],["this",-10.334233590082754],["▁strip",-10.334313674068392],["▁rival",-10.334631084871893],["▁bush",-10.334864720324063],["▁certifie",-10.33667022000062],["▁cap",-10.337183364737216],["▁po",-10.337390460037328],["▁personnel",-10.337863261853482],["▁max",-10.337973410716586],["▁pi",-10.338269411193767],["▁constitution",-10.338527804505976],["residents",-10.339867069621896],["▁senator",-10.339966749003942],["▁segment",-10.340327559295956],["▁leadership",-10.341035567589271],["tried",-10.341350576416694],["▁suburb",-10.341518044242706],["▁patrick",-10.341579616015991],["▁note",-10.342255050389436],["▁prix",-10.343756023951403],["▁wars",-10.344000874589694],["▁jeff",-10.344425046759817],["▁equipment",-10.344684283766428],["▁entitle",-10.345217478335949],["▁chance",-10.345228748306576],["bar",-10.345792934992184],["▁exclusive",-10.346089497776015],["▁potter",-10.34612210729656],["▁madonna",-10.346397649125963],["▁goes",-10.34644169103017],["founding",-10.34649562483929],["▁circle",-10.34664078027015],["▁rank",-10.34703271339584],["bu",-10.347745247487849],["ace",-10.348746123130743],["tri",-10.349087340758636],["▁bruce",-10.34925501559629],["▁arms",-10.349854843074484],["▁freedom",-10.349969989893776],["▁dancer",-10.350337873303644],["á",-10.350981170061049],["▁mu",-10.35126270768336],["▁entry",-10.351306521936053],["▁maximum",-10.351580809581794],["▁protection",-10.352042761156708],["med",-10.352504828919828],["ix",-10.353774169602948],["▁trees",-10.354718429116184],["▁risk",-10.355573407976712],["families",-10.355934000875768],["▁motor",-10.356276813254096],["▁secure",-10.356791451473317],["▁bishop",-10.35728020382097],["▁guy",-10.358141536650871],["▁publisher",-10.358611645593312],["▁budget",-10.359570723871212],["▁dave",-10.360055937263684],["▁princess",-10.360740969585574],["▁lincoln",-10.360761140112224],["▁affairs",-10.360952790451652],["▁paid",-10.360965707502851],["▁attract",-10.361577722171392],["▁casino",-10.361843094296225],["written",-10.36215635938981],["▁holds",-10.363857068906418],["ski",-10.36536159357551],["ating",-10.36556386564984],["▁bring",-10.36564606746326],["▁intelligence",-10.366235091133184],["▁perfect",-10.366642829510228],["▁reaction",-10.36678762463261],["▁arizona",-10.366797584573654],["▁speech",-10.367093759370713],["wan",-10.367094402342438],["▁berlin",-10.36752831047095],["can",-10.367948827865073],["▁nick",-10.368080370956571],["▁device",-10.368311861583283],["▁cleveland",-10.368605822032158],["▁meant",-10.369282183992018],["▁search",-10.370268538832253],["▁pick",-10.370319253464068],["▁extra",-10.370462128610308],["▁soccer",-10.37060309035122],["▁kg",-10.371593028243147],["terms",-10.37166926989596],["▁tradition",-10.37266530187878],["▁musicians",-10.372742683765694],["▁alliance",-10.37304448278965],["▁oppose",-10.373181992288949],["ble",-10.373235583017664],["▁assist",-10.373442336057844],["▁douglas",-10.37376771695994],["▁holding",-10.375517793709037],["ó",-10.375730831034833],["▁mississippi",-10.37586729180395],["▁matter",-10.37590584905882],["▁mtv",-10.37641932509064],["▁ryan",-10.376663633035852],["▁drug",-10.376817640995997],["▁ki",-10.37706842775502],["▁threat",-10.3781713842497],["▁standing",-10.378793130459464],["▁attorney",-10.3800328509192],["▁melbourne",-10.380039220692158],["▁norway",-10.380327752060506],["drawn",-10.380372893819828],["▁investigation",-10.38128637127006],["▁popularity",-10.381649299419347],["sky",-10.381730944662866],["▁artillery",-10.382027964951432],["▁vessel",-10.382138845911264],["▁martial",-10.383073571469565],["ung",-10.383395827610109],["▁kennedy",-10.383481510681204],["treaty",-10.38461759260367],["▁commente",-10.38463098456923],["▁creator",-10.38506320487273],["ō",-10.38550230765038],["▁pen",-10.385562858969568],["▁prisoner",-10.385617583576154],["▁commissioned",-10.386381422832606],["▁jan",-10.38827681883931],["▁leaders",-10.388614706036975],["▁crossing",-10.389242748405907],["▁marvel",-10.389516119916776],["▁movies",-10.38998951869564],["▁stores",-10.390049523984198],["▁weapons",-10.390613437143642],["▁ninth",-10.390732778893788],["▁provid",-10.390811005418428],["▁conservative",-10.3914883061589],["▁ride",-10.392010824915037],["▁cha",-10.39215292949515],["▁khan",-10.392239094139596],["▁numbers",-10.392713917096492],["pro",-10.39408794019447],["▁begin",-10.394818630349514],["▁applie",-10.395107343033828],["notes",-10.395450508428157],["▁politics",-10.39584667355673],["▁individuals",-10.39636585287493],["▁locations",-10.397071280141947],["▁ku",-10.397445626143924],["▁heritage",-10.39835853367052],["▁passing",-10.398368394364113],["▁fruit",-10.39858148379917],["▁text",-10.39865084945746],["▁jon",-10.399517678504802],["▁produc",-10.39952190458532],["▁jason",-10.399815144102966],["▁rear",-10.400232543727707],["▁driver",-10.40052915979597],["love",-10.401870275901944],["▁demand",-10.402366008549834],["▁representatives",-10.403682843334764],["▁themes",-10.403702737641002],["▁strength",-10.403899919123308],["bra",-10.404075332338223],["ship",-10.404155728073611],["▁intersection",-10.404741012058745],["▁magic",-10.405723708046992],["▁salt",-10.406433279990855],["▁nhl",-10.40740918096715],["▁nintendo",-10.407534864889469],["▁sunday",-10.408164133967322],["▁simple",-10.4083121317722],["▁straight",-10.40833440936098],["▁notabl",-10.408572213040536],["▁flood",-10.40942136221372],["▁rescue",-10.409514530885794],["▁caus",-10.409951703666598],["▁guide",-10.409953773213717],["▁cbs",-10.41000471735501],["▁ranking",-10.410055035170432],["▁gordon",-10.410624715978855],["▁medicine",-10.4108442227012],["▁atlanta",-10.411604139156982],["▁bassist",-10.412049397494163],["▁harris",-10.412252962487516],["▁windows",-10.412636821732246],["▁tax",-10.412734868500632],["▁camera",-10.412915603229248],["▁opponent",-10.413127211934082],["▁platinum",-10.413427915568624],["len",-10.413664406937128],["▁killing",-10.413985728200688],["▁collaboration",-10.41408190084952],["▁sweden",-10.414190431441664],["▁admiral",-10.414663781438843],["▁negative",-10.414711734434352],["▁internet",-10.414743794226068],["▁personalit",-10.416200098748796],["▁trust",-10.416539605352265],["▁poland",-10.417567367022745],["▁netherlands",-10.418136442488285],["▁document",-10.41837113798908],["▁failure",-10.418410470074196],["▁let",-10.418868333981647],["▁hair",-10.41904586357056],["▁regions",-10.419203230128817],["▁ballet",-10.419213076453143],["▁birds",-10.419438602860218],["▁alabama",-10.420364445703946],["▁core",-10.420414677048615],["▁sides",-10.420908801907638],["▁religion",-10.420983292360166],["▁supply",-10.421467593286508],["▁gulf",-10.42173923561404],["▁drew",-10.422351558583744],["▁promote",-10.422604203579771],["▁rural",-10.423254604137496],["▁gay",-10.42334035229582],["▁nothing",-10.4236667187207],["▁onto",-10.42367113822719],["▁anniversar",-10.424753910894504],["▁heard",-10.425305240524612],["ken",-10.42542026893459],["▁poetry",-10.42553737707556],["▁shared",-10.42585545491525],["▁anne",-10.426165935490689],["▁jane",-10.426753236971749],["▁diego",-10.427082670043111],["▁rob",-10.42762682551368],["▁description",-10.428117404736565],["▁target",-10.42852688954614],["▁longes",-10.428564898311484],["▁corner",-10.42875611521879],["stating",-10.429677915998925],["▁ban",-10.430634706708444],["▁thirty",-10.431026698282157],["▁francis",-10.431027015087508],["▁manhattan",-10.431586153051896],["▁bu",-10.432283946215682],["▁perhaps",-10.43304013445036],["▁decade",-10.433363593098022],["▁eyes",-10.433679017110448],["▁tall",-10.433910864366586],["▁recognition",-10.43429385710236],["▁relations",-10.434894656646035],["▁representative",-10.435145831487697],["▁cambridge",-10.435243221534977],["▁containe",-10.435585765546056],["rated",-10.435629235833996],["▁orange",-10.43595173617074],["▁basic",-10.436706758167867],["▁colonel",-10.436884282298584],["▁roger",-10.436995484569811],["▁ali",-10.43763056530462],["▁celebrate",-10.439095213836303],["▁decades",-10.439268430415249],["▁analysis",-10.439340212865888],["▁baby",-10.440392591659036],["▁expresse",-10.440637226665055],["stone",-10.440650401098909],["▁philip",-10.440652045000627],["▁seem",-10.440809887278927],["▁originate",-10.441024685100215],["▁opposition",-10.441803484612096],["▁assume",-10.443705020303469],["controlled",-10.444788769303033],["girls",-10.444926108910964],["▁apparent",-10.446171259790315],["▁fuel",-10.446218362634228],["▁sha",-10.446825599114886],["▁cartoon",-10.446886427587224],["▁herself",-10.447653322745756],["▁mini",-10.44822333149495],["▁sign",-10.448255904527292],["▁cook",-10.44833806163188],["▁architecture",-10.448680395736249],["▁departure",-10.44878453042835],["winning",-10.44879671971823],["▁kelly",-10.44895933985371],["▁loose",-10.449076603211788],["▁tri",-10.449527667327278],["▁focused",-10.45003889077309],["▁sole",-10.450057031853053],["▁doing",-10.450773043168567],["▁peninsula",-10.451092854854895],["▁centurie",-10.451393923828368],["▁maintaine",-10.451924678405216],["▁runner",-10.45264162481073],["▁actions",-10.452837834482064],["▁newly",-10.453057843111631],["▁steam",-10.45363432077531],["▁influential",-10.453651203897373],["▁trans",-10.453762336243534],["▁candidate",-10.454450336646095],["▁characteristic",-10.45456757912846],["▁occasion",-10.45493766758801],["▁col",-10.45538496546676],["▁honour",-10.45561987230874],["▁dynasty",-10.455763895515584],["▁journey",-10.456014720518858],["▁string",-10.456785323930244],["▁results",-10.458412483493944],["▁function",-10.458688899009154],["▁flow",-10.459785998626351],["▁har",-10.460663612392704],["end",-10.4607065965643],["▁tag",-10.460984645584755],["▁trip",-10.461053761509588],["▁christopher",-10.461073246157568],["▁ken",-10.461383236077385],["▁russell",-10.461656201981912],["▁chose",-10.46176752080274],["mp",-10.462352901316615],["ram",-10.462446803185506],["▁employee",-10.463321735036352],["▁ge",-10.46422871737398],["▁eleven",-10.4642716355509],["▁bear",-10.464816835011158],["▁card",-10.465487645012637],["▁neighborhood",-10.466434766277414],["▁airlines",-10.466473802130784],["▁pakistan",-10.466703765924205],["▁phil",-10.466832789707816],["▁glass",-10.46710955693242],["▁shooting",-10.46783086832226],["plans",-10.46863920432602],["▁preserve",-10.469098844190654],["▁proved",-10.469269798912295],["▁reports",-10.46949805627308],["▁rap",-10.469567079106168],["▁ontario",-10.47000354861661],["▁broken",-10.470091629615288],["▁biggest",-10.470235767758748],["▁launch",-10.470332587682147],["▁hampshire",-10.47048098983629],["▁calling",-10.47069621925058],["▁apple",-10.47088877141035],["▁mel",-10.471070916630866],["▁coal",-10.471235401577347],["▁flat",-10.471306971144864],["▁application",-10.471568952390816],["▁heat",-10.471659395624725],["▁singapore",-10.472831524910744],["▁baltimore",-10.473148113870993],["har",-10.474238125887316],["í",-10.474705625721928],["▁metro",-10.475313900838414],["▁cars",-10.475735309738493],["▁maine",-10.47626463651947],["▁survey",-10.47676926550721],["▁maria",-10.477048036386265],["▁victim",-10.478152230720369],["▁web",-10.478228245665674],["▁feeling",-10.479105475335894],["▁counter",-10.479247800105622],["▁alex",-10.480229048613625],["▁software",-10.480466432292529],["▁knight",-10.481033381818063],["▁watch",-10.481153098396764],["▁holy",-10.48155988490095],["ster",-10.482239833702518],["▁opinion",-10.482917457818484],["▁reading",-10.483587592442971],["▁stanley",-10.483657194281855],["mel",-10.48394342880576],["▁iowa",-10.484092335863354],["▁comment",-10.484173711553607],["▁method",-10.484902514041162],["▁seattle",-10.485625364436116],["▁link",-10.485886067349323],["▁explain",-10.486909694761623],["▁sponsor",-10.486975816670933],["▁shakespeare",-10.48743894684038],["▁trying",-10.488015399664608],["▁theatrical",-10.488332987160105],["▁contrast",-10.488541473780352],["▁walk",-10.48910789460537],["▁carter",-10.48940999228759],["▁table",-10.48956659570572],["▁powers",-10.489997647197326],["▁bros",-10.4907699527827],["▁subsidiar",-10.490934997488583],["▁portray",-10.49097795206001],["▁abandone",-10.491067759240536],["▁dollar",-10.492241978360395],["▁tamil",-10.492256978128522],["▁danish",-10.492301536999364],["▁battleship",-10.492368727945172],["rugby",-10.49408696267024],["▁cable",-10.494367243871926],["▁filming",-10.49519119962763],["▁depict",-10.495328265438332],["▁settle",-10.495685733062984],["▁shopping",-10.495691618093227],["▁commonwealth",-10.495762689198113],["▁shore",-10.49619276796207],["▁receiv",-10.496555617861397],["▁ron",-10.4970637873422],["▁videos",-10.49750642564718],["▁struck",-10.49776402761264],["▁supplie",-10.497775791727964],["▁homer",-10.498137944307368],["▁hands",-10.49827836104684],["bodies",-10.498511689215748],["▁monument",-10.49867887839507],["án",-10.498802838831828],["▁amateur",-10.498875579176456],["▁christ",-10.49921054317594],["▁veteran",-10.499249452397311],["▁visite",-10.499362952637886],["▁communities",-10.49937477107684],["▁parallel",-10.500997496585944],["▁raid",-10.501309661656949],["ahead",-10.502498645807163],["▁achievement",-10.503048775687548],["▁request",-10.503444557114063],["▁connected",-10.503574843467836],["▁path",-10.503794496667153],["▁inch",-10.503896019957503],["▁twin",-10.504303139369966],["▁creative",-10.504455428425247],["▁trains",-10.504587956820275],["▁serious",-10.504643012391892],["▁institution",-10.504695081566403],["▁occupie",-10.504962335709612],["west",-10.506029096805715],["▁benefit",-10.506262353899018],["▁showe",-10.506534171505429],["▁conduct",-10.506652499326243],["▁fly",-10.506829978574867],["▁reviewer",-10.507946906574055],["▁filmmaker",-10.509192071640118],["ju",-10.50926922287381],["russian",-10.51063962626054],["▁roof",-10.510864970468235],["▁discovery",-10.51115452499373],["▁invite",-10.51123326220775],["inches",-10.512461294213889],["van",-10.513253780279008],["▁lu",-10.514199781976806],["▁combination",-10.51524687988064],["art",-10.51528013993708],["▁grante",-10.515433868902337],["▁merge",-10.515702642608469],["▁hope",-10.516154405236538],["▁thing",-10.516458719166026],["▁kilometre",-10.516613787720662],["▁morgan",-10.516954052340266],["▁session",-10.517547209320602],["▁beer",-10.517838479362045],["ised",-10.517921497977987],["▁lawrence",-10.518147881330126],["▁evening",-10.518550013338205],["▁der",-10.518570031784964],["▁laid",-10.5192314397557],["▁jam",-10.52078156144518],["▁silent",-10.520829255012934],["▁chemical",-10.52138458838886],["▁safety",-10.521605429274574],["▁arm",-10.522383482291104],["▁chi",-10.523005216677054],["lie",-10.52302475143972],["▁why",-10.52323576177622],["▁federation",-10.523237171108292],["▁cathedral",-10.523238464550282],["▁cr",-10.5241141145404],["▁specifical",-10.524644900558116],["▁serial",-10.525287607061165],["possibly",-10.525410839586064],["▁lawyer",-10.525926486581888],["▁jordan",-10.526023272518255],["economy",-10.526435295218583],["▁pat",-10.526859932211602],["▁spirit",-10.52686377040528],["▁simpsons",-10.527117714307876],["▁debate",-10.527256129325618],["ella",-10.527257869973726],["▁coastal",-10.52735312740822],["▁junction",-10.527720075594893],["▁advisor",-10.5283280790356],["▁letters",-10.528640071887844],["▁rome",-10.529976343803794],["formerly",-10.53024527087488],["▁spot",-10.530349357056872],["▁comprise",-10.530419848237964],["▁criticism",-10.531071661981567],["▁thirteen",-10.533462095065126],["▁establishment",-10.533597967646571],["▁wayne",-10.533844148179362],["▁message",-10.534181582431325],["▁existence",-10.534468947640244],["▁ski",-10.534540495320176],["▁drink",-10.535568146629652],["▁louisiana",-10.53559311783194],["bury",-10.535798894700063],["hat",-10.536299652935384],["▁bronze",-10.537017206263478],["▁stewart",-10.537045604137685],["▁hamilton",-10.537146058496624],["▁narrow",-10.537413798464485],["▁kings",-10.53791883806426],["▁teaching",-10.538267317400978],["▁fresh",-10.53881316677293],["cia",-10.53887121087188],["▁communist",-10.5389116648559],["▁looking",-10.53895562929324],["▁discover",-10.539731948755056],["▁grey",-10.540772725833891],["▁labor",-10.541053503599109],["▁says",-10.541551363732548],["▁depend",-10.541978203524613],["▁fired",-10.541993871638176],["▁arab",-10.541995042664505],["▁assault",-10.54200918185114],["▁introduction",-10.54207565959166],["▁tank",-10.54229785426208],["pp",-10.542935348536206],["▁operates",-10.542970703758064],["▁dry",-10.543810112720056],["▁triple",-10.544562174911658],["rock",-10.5448633046998],["▁languages",-10.545049324881836],["▁draw",-10.54539704537051],["▁criticize",-10.546282701109917],["▁statement",-10.54671177389296],["▁acre",-10.547299999027182],["▁coin",-10.54751693273659],["▁thompson",-10.54781196917174],["▁ottoman",-10.54798046508043],["▁performer",-10.54804531052845],["▁afterward",-10.548085363666486],["▁muslim",-10.548868447315977],["▁revival",-10.549313111649024],["▁cruiser",-10.549557324405797],["lis",-10.549882379648402],["▁parker",-10.550095478358012],["▁restore",-10.551021657052264],["▁wright",-10.551760381018076],["▁gang",-10.5517796031189],["▁adams",-10.551922690920287],["▁dallas",-10.551960260218406],["▁deputy",-10.552111052604932],["▁robinson",-10.55215779264397],["▁plannin",-10.552681625994678],["▁affected",-10.553269822189026],["▁puerto",-10.553413230825829],["▁billy",-10.553735325469736],["mouth",-10.553830454456971],["▁secondar",-10.55392701573258],["▁legend",-10.554208999312008],["▁walls",-10.554975015611053],["▁mainstream",-10.555346543446504],["▁constant",-10.55544131417554],["▁egypt",-10.556357090608277],["▁liverpool",-10.55689164879344],["▁countie",-10.556904237145858],["▁emerge",-10.556964805430956],["▁sit",-10.557279378509348],["▁municipal",-10.55835297947136],["ped",-10.5587154904163],["released",-10.558994710432913],["▁coaster",-10.559187159804248],["long",-10.559246246964143],["▁beatles",-10.55926822334445],["mentioned",-10.559692172115092],["▁talent",-10.56118099962456],["▁aviation",-10.561399822113634],["pop",-10.561533186134676],["▁physics",-10.562165195859356],["▁unusual",-10.562595111642043],["▁nobel",-10.562987733970932],["▁phase",-10.563234809078963],["▁mix",-10.563448014637206],["▁accompanie",-10.563658646361429],["▁sample",-10.564411488465533],["▁bomb",-10.564758921199324],["▁kent",-10.564796065723282],["gu",-10.565075115102829],["▁approache",-10.565553923443698],["▁interchange",-10.565696638250053],["▁indie",-10.565735233594438],["▁steven",-10.566092481594229],["▁factor",-10.56683434476021],["▁underground",-10.5675271286599],["german",-10.56784990290797],["▁contact",-10.56872464594252],["▁investment",-10.568732322511666],["š",-10.568970093706955],["▁hi",-10.569076912390146],["▁adventures",-10.5696750456897],["▁austria",-10.569736001816189],["▁organisation",-10.570078507591663],["▁colonial",-10.570563062916136],["▁successor",-10.570682997858436],["▁desire",-10.57102018499765],["▁charter",-10.571057610119908],["▁fields",-10.571263465145712],["▁destroy",-10.572864929873148],["▁considerabl",-10.573693013695545],["▁je",-10.574159864787529],["acted",-10.574382248677471],["cu",-10.574495357434907],["bel",-10.574626281807578],["▁distinguishe",-10.574709201543286],["▁distinct",-10.574914047760144],["ide",-10.576401945751051],["▁proposal",-10.57693984965253],["class",-10.577747583692007],["kan",-10.577873731616966],["▁norman",-10.578020769416872],["▁trophy",-10.578192899445977],["▁waters",-10.58020531200725],["▁environmental",-10.580323105809224],["▁manga",-10.58033022882466],["▁soap",-10.580574685709829],["▁entrance",-10.581097330938707],["▁horses",-10.581216263976817],["▁spread",-10.581442521875148],["drama",-10.581489327562847],["▁arrange",-10.581879501167196],["ure",-10.582154603024756],["▁cancer",-10.582517896134242],["▁accident",-10.583014164570372],["▁worth",-10.585046878611797],["lar",-10.585217225503692],["ck",-10.585520129766875],["ice",-10.587302728517828],["▁brazil",-10.587481446650791],["▁extension",-10.588301026082464],["▁adjacent",-10.588434795458369],["▁protagonist",-10.588844017811866],["▁exhibit",-10.588872978188393],["ston",-10.58905169652665],["cited",-10.589934250472371],["king",-10.589943798265097],["▁fun",-10.58996778089653],["▁desert",-10.590479819760075],["▁chase",-10.590694449378535],["▁borough",-10.590927889914068],["▁approve",-10.591302939771424],["▁ram",-10.5913897396452],["▁marshall",-10.592395106009974],["▁austrian",-10.594645571683255],["▁determined",-10.594913021094492],["▁household",-10.595305483243534],["▁evil",-10.59551698679422],["▁mobile",-10.59583113390044],["▁crash",-10.595926001535387],["▁portland",-10.596210300920305],["▁charlie",-10.596411555891754],["▁gray",-10.597896808843046],["▁interior",-10.598030694652918],["▁nelson",-10.59807956848738],["▁banks",-10.5981453594582],["▁learn",-10.598370469639908],["▁sang",-10.599083028754196],["▁transportation",-10.599166565772856],["▁internal",-10.599223604047282],["breaking",-10.599475013738695],["▁translate",-10.59954857825672],["▁manufacture",-10.600108152405394],["pan",-10.600160524658886],["▁wins",-10.601754050095378],["qua",-10.601828498087771],["spread",-10.60183847017288],["▁sung",-10.60242532868572],["kar",-10.603731002478169],["▁accept",-10.604596554005758],["▁sentence",-10.604617494561838],["▁retirement",-10.60537403888163],["▁habitat",-10.605772845204926],["▁visitor",-10.606128920094042],["▁civilian",-10.60633530498422],["▁transition",-10.60706954653246],["▁interstate",-10.607152261458213],["▁montana",-10.60732170706502],["▁hunt",-10.608082253023207],["▁brain",-10.609085413908376],["▁explaine",-10.609735299216233],["tion",-10.6102158177015],["▁opposite",-10.61035763932462],["▁deck",-10.61069739601007],["▁converte",-10.611474194487691],["▁nazi",-10.611508669929286],["▁romance",-10.611735932208992],["▁acid",-10.61365111859102],["▁johnny",-10.613936353058534],["▁pin",-10.614028447890531],["▁baker",-10.61417578018437],["▁boxing",-10.614476973631104],["jimmy",-10.61468911552394],["▁attribute",-10.614806554357765],["▁belt",-10.615281102754462],["▁municipality",-10.61537838571032],["▁pursue",-10.615527104278552],["ence",-10.615595465303874],["▁submarine",-10.616061705264672],["▁installment",-10.61609729053844],["▁argued",-10.616252339529815],["gate",-10.616387897509544],["▁sale",-10.61640360688272],["▁gu",-10.61704042604579],["ben",-10.617206338668527],["▁wicket",-10.617217603832602],["innings",-10.617494974703854],["▁download",-10.617903268997178],["▁tail",-10.61864706553512],["▁ministry",-10.618658218858542],["▁component",-10.619178767587114],["▁bears",-10.619215959999934],["▁gone",-10.619505653960037],["▁giant",-10.619632569848072],["▁properties",-10.62074768680952],["▁philosophy",-10.62104399276433],["gle",-10.621277033541858],["▁residential",-10.62143306692804],["ica",-10.621559428216608],["▁arrival",-10.621630909308134],["gar",-10.621807758892851],["▁warning",-10.621887609404345],["▁architect",-10.622224558626478],["del",-10.6224893394214],["low",-10.622493439616289],["▁knowledge",-10.622693478549756],["▁repeated",-10.623047931417808],["▁angel",-10.623454864551428],["▁towns",-10.624529628400474],["▁climate",-10.62609449422405],["▁monarch",-10.626244667426745],["▁anna",-10.626350537791476],["▁turns",-10.626956335002063],["▁finance",-10.627063195145611],["▁cavalry",-10.6273691549149],["▁za",-10.62773532631899],["▁advantage",-10.627939071886091],["stra",-10.627945413576573],["▁medieval",-10.6285041473859],["▁gary",-10.628569361865702],["▁resources",-10.628693251510471],["ö",-10.629748197351809],["▁encourage",-10.629997052422922],["wounded",-10.630450171390262],["▁symbol",-10.630767025080583],["▁finding",-10.631080935742204],["▁earlies",-10.631586839124346],["taught",-10.631646802360072],["▁squad",-10.631930892219524],["▁beautiful",-10.631940614875452],["cul",-10.632046102023985],["▁throne",-10.632633778199963],["▁transfer",-10.63272680590633],["▁administrative",-10.633484945319202],["▁satellite",-10.633536023018529],["▁mounte",-10.633942357099157],["▁ph",-10.6351495269284],["▁supporter",-10.635254163588394],["trained",-10.635526307013928],["▁elections",-10.635672176796122],["stein",-10.636392794053856],["▁audio",-10.636563525291338],["▁employe",-10.636845214192826],["▁surrender",-10.637774067465443],["▁exhibition",-10.637888398759715],["▁explore",-10.638425383120556],["▁baron",-10.638481970672824],["▁anime",-10.638564220259598],["▁protecte",-10.6385643289459],["▁violence",-10.638606749917022],["▁rick",-10.63867467055777],["pen",-10.639067843547592],["▁welsh",-10.640139160919674],["▁sessions",-10.640344960399185],["▁rainfall",-10.641381719775136],["▁cu",-10.641617595610374],["▁labour",-10.64197382530062],["▁bit",-10.642656489015012],["era",-10.642746250955405],["ama",-10.643554488890112],["everything",-10.643938103341169],["▁wolf",-10.64422302263735],["▁tenth",-10.644541704578096],["▁wealth",-10.644804611528272],["▁clubs",-10.644816970510671],["cho",-10.645256913299486],["▁try",-10.646572967194237],["▁wisconsin",-10.646694737350582],["▁ren",-10.64695799396248],["▁essential",-10.64772448586685],["offers",-10.648360652357296],["▁models",-10.648717012621614],["▁sciences",-10.649382021896225],["▁epic",-10.64973470351736],["▁cooper",-10.649843875176447],["▁verse",-10.65011743566629],["▁parent",-10.650755587444074],["▁bart",-10.65136603832778],["not",-10.65173336373748],["▁authoritie",-10.651757326124274],["▁symphon",-10.651864022819291],["hop",-10.652132248851318],["ington",-10.652751984693],["rie",-10.652996058208736],["tal",-10.653111091899095],["▁denmark",-10.653239807680364],["▁elder",-10.653834855808956],["big",-10.654531255182633],["▁samuel",-10.65459013914899],["▁cycle",-10.654932979009358],["▁span",-10.65502767449801],["▁resistance",-10.655072949436333],["▁weekend",-10.655417774022624],["▁focuse",-10.65655590293033],["like",-10.657041437838169],["▁repair",-10.657528095573916],["pur",-10.65756451755312],["▁morris",-10.658028691400938],["▁caught",-10.658071038931014],["▁murray",-10.65819667131087],["▁canno",-10.659159038771236],["▁task",-10.659208284625842],["▁cult",-10.659281359951589],["▁instrumental",-10.659469663127178],["▁antonio",-10.660104532830609],["▁responsibilit",-10.66023226135883],["▁mor",-10.660954604264717],["▁pine",-10.66163124246925],["zz",-10.661717992242808],["▁citizens",-10.662495478523036],["▁aim",-10.662567064774338],["▁finishing",-10.66272293713283],["▁carey",-10.662798400209638],["▁campbell",-10.66378119286146],["▁collected",-10.663858643191851],["ach",-10.663956580523758],["▁collapse",-10.664056485796022],["▁continu",-10.664367332348151],["saw",-10.66462076557806],["▁carrier",-10.664944959443202],["ric",-10.664974422000094],["▁hell",-10.665025991466036],["▁soft",-10.665230339253922],["▁identity",-10.665380649990023],["▁terminus",-10.665720851007952],["▁bought",-10.66594974457489],["nfl",-10.666429990629698],["▁roads",-10.666571804547068],["game",-10.666996811307015],["▁acres",-10.667036778171395],["▁heavyweight",-10.667258750312694],["▁annually",-10.667852671099489],["nba",-10.667910549207669],["ban",-10.668165722114413],["aki",-10.668379298357342],["cat",-10.668641322171],["▁colony",-10.669320910954529],["▁rhythm",-10.669407763268124],["▁step",-10.669652340953588],["▁surround",-10.670153150108138],["length",-10.670508518972325],["▁bottom",-10.670885572598497],["▁matthew",-10.671908870523794],["▁legacy",-10.672469113909354],["▁walker",-10.672851772877312],["▁favorite",-10.67291686018509],["fer",-10.673052912519305],["▁directors",-10.67351178702595],["▁franklin",-10.673552898439624],["▁carry",-10.67369156108694],["▁roller",-10.67502526787202],["▁predecessor",-10.67529120785758],["▁pittsburgh",-10.675370676296843],["▁harbor",-10.675899383092457],["▁views",-10.676023876759244],["▁thick",-10.676263947922877],["▁fear",-10.676463226190078],["▁panel",-10.676817567677432],["▁reform",-10.677161481704058],["▁vo",-10.677267806782542],["▁attraction",-10.677274023673004],["▁drafte",-10.677407302771664],["▁developer",-10.677823964779172],["bridge",-10.6783350200292],["▁va",-10.678740612742343],["▁wait",-10.678820223508565],["▁han",-10.678850236338052],["rom",-10.6793410698871],["▁laborator",-10.67971694732172],["▁decide",-10.679769231943215],["▁dogs",-10.680439996653138],["▁involv",-10.680554332697646],["▁touring",-10.68182341109216],["▁ceo",-10.68294588558276],["▁classification",-10.683131223814296],["▁object",-10.68355896566965],["▁reputation",-10.683806358916373],["▁storyline",-10.683887049794308],["▁contributions",-10.684100469782038],["▁controversy",-10.684396815027522],["▁alfred",-10.684408475691775],["tur",-10.684818421263982],["▁manufacturer",-10.68591947666023],["▁sell",-10.685927957323813],["▁sweet",-10.686268994773508],["▁universitie",-10.686632829935451],["▁basin",-10.687312178100232],["▁shop",-10.687398803817928],["▁rejecte",-10.688150771120233],["ü",-10.68875857795563],["▁clinton",-10.688765152056426],["▁unsuccessful",-10.688920294285978],["▁freeway",-10.689086961861284],["qui",-10.689288942890954],["▁losse",-10.689356320908203],["▁pink",-10.689454848874822],["▁resident",-10.69040229553237],["▁cool",-10.690719702890648],["▁apart",-10.691077983501868],["▁mad",-10.691231632145223],["▁promise",-10.691341059744571],["▁factory",-10.692537970319092],["▁replacement",-10.69275754719942],["▁progressive",-10.693509438461495],["▁hungarian",-10.693631634288852],["▁principle",-10.69451534898786],["lic",-10.694531084747467],["▁brazilian",-10.694781505227716],["▁landmark",-10.695100372183298],["▁progress",-10.695882024737934],["los",-10.697904534272563],["▁chamber",-10.69811458949948],["uefa",-10.69816718973394],["cher",-10.69852847237345],["ball",-10.698861219781534],["▁auto",-10.698973766660773],["ear",-10.69911811539023],["▁laws",-10.699158824509102],["▁missing",-10.699300189677274],["▁appeal",-10.699512879919764],["▁bat",-10.69966424742702],["▁volunteer",-10.700463880805405],["▁connecticut",-10.70075218743179],["▁gradual",-10.700753065730217],["century",-10.700919223836651],["▁chair",-10.70126500075047],["▁console",-10.70136414551929],["▁mal",-10.701609459043915],["mont",-10.70236906973101],["▁roy",-10.702402690323202],["▁frederick",-10.702463824405893],["▁publications",-10.702746077243738],["ong",-10.702820884831649],["▁israel",-10.70283121335548],["selling",-10.703112707748968],["▁quite",-10.703154135797494],["▁remix",-10.70371091826275],["▁getting",-10.704075436922295],["▁necessar",-10.704173184030168],["istic",-10.70421029905392],["▁exception",-10.704282710897742],["▁cor",-10.704306973685002],["▁ballad",-10.704510695448166],["▁kid",-10.704740051488432],["▁generate",-10.705290372884567],["▁cousin",-10.705346806935497],["▁golf",-10.705640737802506],["▁surviv",-10.70568844629653],["half",-10.7061088252243],["▁rolling",-10.70620687759816],["▁vision",-10.706289711249612],["vel",-10.706836333333618],["▁stream",-10.707271816376975],["▁belief",-10.707644733393428],["away",-10.708866165538398],["▁headed",-10.709072787984717],["memory",-10.709283003790691],["▁partnership",-10.709701174339743],["▁residence",-10.710672073328178],["▁poll",-10.71071203816537],["▁pit",-10.710770314166677],["▁tokyo",-10.711075261177095],["▁mystery",-10.71218533048152],["▁exact",-10.71261544856328],["▁activist",-10.712697464078811],["▁retail",-10.712774344796893],["▁convince",-10.713192613426791],["▁destroyer",-10.713302379371934],["▁trilog",-10.713569625692244],["▁narrative",-10.713961684768869],["▁plus",-10.714221309188074],["▁para",-10.71434145720252],["▁novelist",-10.714646338601757],["world",-10.71480697329745],["ray",-10.71644673882615],["series",-10.716502358351365],["▁gameplay",-10.717249702658318],["▁tribute",-10.71744422599772],["▁cemeter",-10.717524877263427],["▁remake",-10.717733403184525],["may",-10.717896731575474],["▁shield",-10.717914139012647],["aceae",-10.718157212371429],["var",-10.71854845697196],["▁lisa",-10.7192908703575],["▁giants",-10.719498367685684],["mit",-10.71968754360471],["▁styles",-10.719981273805567],["▁controversial",-10.720010984843343],["▁passage",-10.720061109490414],["▁count",-10.720471630745095],["▁inner",-10.720737297797228],["▁skin",-10.720830593730556],["▁fif",-10.720886110067749],["viewed",-10.722419216141343],["ile",-10.722484233648853],["french",-10.722725405635646],["▁opportunity",-10.723568631433224],["▁manner",-10.724410476003788],["▁winners",-10.72546414333864],["▁mode",-10.725465285581253],["par",-10.72576951029226],["▁hunting",-10.72577055868054],["▁fille",-10.72732570544212],["▁classes",-10.727390552955717],["▁tribe",-10.727507507353303],["▁touchdown",-10.727519546454433],["▁chapter",-10.72782109084046],["▁graham",-10.727892395974608],["▁scheme",-10.728640635431724],["▁patrol",-10.728905302475614],["▁cent",-10.730374326630969],["▁classified",-10.7308078359402],["▁address",-10.730813884475356],["▁brick",-10.730859734204756],["ón",-10.731159083283815],["▁throw",-10.731568147960676],["zer",-10.73166803455841],["▁sugar",-10.732649391320354],["▁vol",-10.732772649420305],["ska",-10.732816262093936],["▁educational",-10.732837456248076],["▁experimental",-10.73304164673305],["▁quarterback",-10.733390275000426],["▁ensemble",-10.73347830870726],["part",-10.733503505370503],["xbox",-10.733680893489137],["▁edite",-10.73415020977768],["▁medium",-10.734281419021558],["▁teen",-10.734479229396998],["▁add",-10.734735071687613],["ria",-10.73522994522516],["▁pizza",-10.735347241601636],["▁conservation",-10.735479207297836],["law",-10.735615187540406],["▁lap",-10.736290802873553],["▁didn",-10.736320962807682],["▁doubles",-10.736481403429131],["▁tunnel",-10.736821381802203],["tom",-10.736921342625038],["▁warren",-10.737076616673408],["▁expand",-10.737644356678585],["▁backing",-10.737723365584436],["▁mouth",-10.738185053072003],["▁organizations",-10.738238985622626],["▁dominate",-10.73831681765679],["ave",-10.738712699001194],["▁eliminate",-10.739465450663674],["story",-10.739730469867787],["▁dispute",-10.7397444097225],["▁chapel",-10.740030498999785],["▁sons",-10.740100714033408],["▁trace",-10.740517510049044],["uff",-10.74135192569254],["▁bull",-10.741420063541424],["duty",-10.741491301519742],["ula",-10.741654878892016],["▁programming",-10.741763148693234],["▁shell",-10.742220284592436],["▁ends",-10.742743754399363],["you",-10.742945931392164],["ick",-10.74322023202448],["▁instruments",-10.743631166493213],["▁translation",-10.74529485820396],["▁drums",-10.746826575626296],["sch",-10.746944868366352],["▁turning",-10.747105742654227],["▁bureau",-10.7473379929005],["▁gr",-10.747683089831291],["▁turkish",-10.747964088924508],["season",-10.74846296463438],["▁moderate",-10.75055940701197],["burg",-10.750650735616029],["▁committed",-10.751170986941029],["▁chorus",-10.751178733344345],["▁sarah",-10.751425816751228],["▁fred",-10.75175188513606],["▁wings",-10.751941516324102],["▁ju",-10.752085614588838],["▁casualt",-10.75223323857781],["▁inspiration",-10.752688319165213],["who",-10.75277420269066],["▁safe",-10.75303763059632],["▁tar",-10.753139801055232],["top",-10.75372668699449],["▁airing",-10.753848315577311],["▁sony",-10.754453496584004],["▁dragon",-10.755352530347366],["▁compound",-10.75547758758824],["▁outer",-10.755609055116418],["▁grow",-10.756530688327356],["▁pitch",-10.757423008730395],["▁laste",-10.757442282890723],["▁austin",-10.75745716852854],["▁soldier",-10.757653491104092],["▁strategy",-10.758058587435274],["▁cal",-10.758175732245125],["▁tell",-10.758190337415932],["▁row",-10.758262951383056],["▁plate",-10.758501548420565],["val",-10.75851568972324],["▁exit",-10.759241014190922],["▁sets",-10.760697547171892],["▁orleans",-10.760821543658436],["▁rush",-10.76095178375522],["▁equivalent",-10.760972046007302],["▁jerry",-10.761306651683809],["▁drawing",-10.76147751963341],["▁summit",-10.761577016006347],["▁revolutionary",-10.761676382178951],["▁hudson",-10.7617505309895],["▁wwe",-10.761974986786552],["▁rod",-10.762511304628184],["title",-10.762702114136443],["cor",-10.762913305205624],["▁cabinet",-10.762951306614738],["ened",-10.763172641768492],["▁advocate",-10.76350032243448],["ping",-10.76419158217242],["▁swiss",-10.764544697177746],["power",-10.764800407316097],["▁detective",-10.764878757443684],["▁injured",-10.764898734261909],["▁wrestler",-10.765223527995373],["▁proper",-10.76587618512158],["▁continental",-10.766600546475765],["▁offices",-10.767182203036588],["▁territori",-10.767276382512591],["with",-10.767471925156311],["▁adelaide",-10.768780889215067],["▁lands",-10.768840160873657],["▁cash",-10.768841592610398],["nic",-10.768950939095769],["izing",-10.769211259080484],["▁formal",-10.76932878264335],["produced",-10.76959866543174],["▁relief",-10.770843312567846],["▁hunter",-10.771272721373233],["▁charlotte",-10.771348065935335],["▁importance",-10.77158241472995],["▁arc",-10.772157425617282],["▁mars",-10.772642104690064],["▁reveal",-10.772909746543553],["▁mitchell",-10.773212298311872],["▁specimen",-10.773364623016436],["▁beauty",-10.773785691208852],["▁buy",-10.773809014133706],["▁murphy",-10.77386775222568],["▁artistic",-10.773932857823953],["▁dramatic",-10.773949175734868],["where",-10.774215016993072],["▁jonathan",-10.774225855627034],["▁signal",-10.774474340396813],["▁ethnic",-10.774988250152193],["▁communications",-10.775003313082642],["▁saturday",-10.77563170843198],["▁brooklyn",-10.77602202754614],["▁shi",-10.77618116109487],["▁sri",-10.77710526680873],["▁print",-10.77738756838522],["ties",-10.778603950734324],["▁truth",-10.778961362052424],["bol",-10.77912170068787],["▁phoenix",-10.77922738523172],["▁learning",-10.77928123812876],["▁faith",-10.779597341475776],["▁southeastern",-10.779760479112596],["▁buffalo",-10.779809489084007],["▁virtual",-10.779949560059194],["aka",-10.781099659912964],["▁wine",-10.781490486862102],["▁tale",-10.781609076541448],["▁crowd",-10.781663235935993],["▁fur",-10.781919894393356],["▁meters",-10.782268351734258],["elle",-10.782313402034877],["cal",-10.782373657393414],["▁improvement",-10.782755623691928],["▁flowering",-10.78329657266581],["▁oscar",-10.784621528075652],["▁collective",-10.784798418193452],["▁diamond",-10.785610332859816],["▁ago",-10.78575382906742],["▁donald",-10.785853310615016],["▁collaborate",-10.785996481310468],["▁drop",-10.786287162878676],["▁door",-10.786424209518376],["▁prepared",-10.787179160191767],["capable",-10.78749352388857],["▁mention",-10.787886983804034],["▁raw",-10.788537377509618],["forming",-10.78923428801792],["▁revenue",-10.789373062436136],["▁crisi",-10.789445167772348],["▁flooding",-10.789840526072668],["▁acclaimed",-10.79088312009421],["▁adding",-10.791459958538804],["ali",-10.7919876553393],["south",-10.7919952553533],["▁simpson",-10.792457040637617],["▁map",-10.792511531106651],["use",-10.792765133596898],["book",-10.792779661242683],["ā",-10.79371721815749],["run",-10.79375681099422],["▁argentina",-10.79425602930907],["▁gate",-10.795734736914136],["▁covering",-10.796262655923206],["▁substantial",-10.796318418432271],["▁marie",-10.796599835657904],["▁killer",-10.796715348389112],["ich",-10.796731472230832],["▁kids",-10.797279292749764],["▁belgi",-10.797945821862216],["▁calls",-10.798034880539518],["▁virgin",-10.79841213086324],["▁decline",-10.79872033819331],["▁upgrade",-10.79897109330677],["▁robin",-10.799636456062078],["▁slam",-10.799726041045966],["▁childhood",-10.799850570641857],["▁terminal",-10.801083337884355],["nik",-10.801315013558725],["▁mon",-10.801442920571176],["▁bra",-10.801513012690664],["▁preparation",-10.801527877569155],["▁grace",-10.801574958168915],["▁concerns",-10.802220048806152],["▁wooden",-10.802431187156389],["▁burie",-10.802832401003943],["▁hitler",-10.804840413736668],["▁den",-10.804864809406704],["▁battery",-10.806172819626113],["▁switzerland",-10.806741801354647],["▁retaine",-10.80687993166707],["▁mental",-10.807169426351788],["▁pet",-10.80722077577038],["▁determine",-10.807793014570333],["▁anything",-10.807963376451852],["▁seek",-10.808156059239527],["▁juan",-10.808716999335529],["ava",-10.809047351066388],["▁stands",-10.809215533953642],["▁amendment",-10.809619837270716],["▁housing",-10.81034447997692],["▁jet",-10.8107630856113],["▁transit",-10.811459199400993],["▁engines",-10.812615365151366],["▁sector",-10.812809239870688],["▁poly",-10.8128293575941],["▁legislative",-10.814224189155972],["▁penalt",-10.81444552938583],["▁frame",-10.814550533854144],["english",-10.814664472740091],["asily",-10.81484569900519],["▁occupation",-10.81485152635446],["▁illustrated",-10.815908051925383],["▁intensit",-10.816226606978883],["▁holiday",-10.8162760604413],["▁grounds",-10.817251512914597],["▁barry",-10.817447696317],["▁moscow",-10.817649911529305],["▁recurring",-10.818009322296156],["▁recognise",-10.818173317868586],["▁disaster",-10.818335114373054],["▁mediterranean",-10.818849861151255],["gal",-10.819154939949826],["▁min",-10.81921623383178],["▁solution",-10.81934516404447],["▁costume",-10.819921060039343],["ale",-10.820082599497209],["east",-10.820309516033769],["▁superhero",-10.820930956884723],["▁institutions",-10.821294657360855],["▁sections",-10.82214665513393],["▁trouble",-10.8227050474393],["▁wedding",-10.823447879193422],["▁knew",-10.823966464939453],["▁carbon",-10.824681790677287],["▁sch",-10.824883080072144],["▁sharp",-10.825553623765762],["▁dating",-10.825997329128198],["black",-10.826418168908948],["▁margaret",-10.826451356669024],["▁democrat",-10.82710346376759],["dutie",-10.82767615721168],["▁benjamin",-10.827791386061714],["items",-10.828726389131344],["▁accuse",-10.828863609208836],["▁carrying",-10.829038654323634],["▁alleged",-10.829238181822513],["▁patient",-10.829381872701289],["▁elevation",-10.829908304267924],["▁compet",-10.830770573455936],["▁income",-10.831021951220936],["zar",-10.831041378732348],["▁glen",-10.831595133411684],["▁rising",-10.831602281464054],["▁montreal",-10.831648040422095],["▁ensure",-10.83287301296018],["▁hawaii",-10.833198139332277],["▁caribbean",-10.833420931300472],["▁references",-10.834376008268563],["▁hull",-10.83437973930194],["▁evans",-10.834758006805984],["▁solid",-10.83601372659365],["▁siege",-10.83674155146399],["▁materials",-10.83704838356906],["▁shoot",-10.837206207123003],["▁garner",-10.83809829176515],["▁wake",-10.838177589106351],["▁neither",-10.838269633789093],["▁hol",-10.83838756954666],["tar",-10.83846304493311],["▁craig",-10.838579153744222],["▁greece",-10.839153789327296],["▁orbit",-10.839607963503878],["▁gallery",-10.8403787234717],["▁observation",-10.84085351287325],["▁declined",-10.84111974100761],["▁ros",-10.8411293990174],["▁hart",-10.84219886785989],["▁egyptian",-10.842660646289206],["▁worst",-10.842975450622792],["act",-10.843113355349503],["▁rice",-10.843344787662184],["wick",-10.843610447225458],["▁massive",-10.843697602979203],["▁utah",-10.844066076630863],["▁confederate",-10.84424032243267],["▁attend",-10.844479998048117],["▁crystal",-10.844728531801344],["▁weak",-10.84504957286602],["▁fit",-10.845317283958646],["▁boats",-10.845344912985349],["▁karl",-10.845563109266308],["▁delivere",-10.845688678278211],["▁watche",-10.845791573919229],["illa",-10.84592690654952],["▁pope",-10.846076385978009],["▁behavior",-10.84678883552197],["▁earning",-10.84683871272112],["▁terrier",-10.847041951797678],["▁val",-10.847509616526771],["ante",-10.84759121074996],["▁lie",-10.84772514441302],["win",-10.847842204124191],["▁priest",-10.847895762717496],["▁none",-10.847980226063529],["▁gene",-10.848024613490606],["eemed",-10.848111337897125],["▁agricultural",-10.848667711775452],["▁depth",-10.848778831550394],["▁rihanna",-10.849007282005452],["voted",-10.849187174552238],["▁execute",-10.849452214899872],["▁lennon",-10.849514630975216],["▁acclaim",-10.849757005546016],["level",-10.8502566415357],["▁emergenc",-10.85099898176525],["▁cole",-10.850999747757408],["▁lose",-10.851151483981296],["▁uncle",-10.85154432169054],["▁turkey",-10.852037776803051],["monthly",-10.852091944942115],["lor",-10.852309877300568],["▁ways",-10.852563653366474],["▁turret",-10.85273329376066],["▁oak",-10.852863328821728],["×",-10.853619261372604],["bal",-10.853878049982823],["▁tied",-10.854473564135896],["▁completion",-10.854696833392913],["▁retain",-10.854744672538857],["▁gil",-10.854805667963443],["▁suicide",-10.855560825852033],["▁trio",-10.855737239303007],["▁vancouver",-10.85611147449858],["▁parks",-10.856250999458664],["light",-10.856755982107876],["▁organ",-10.857011239179508],["▁humans",-10.857810203245837],["▁homes",-10.858513327203406],["▁beyoncé",-10.860219356695437],["▁attache",-10.860508235345264],["▁lion",-10.860563998894728],["▁continuous",-10.860863405480837],["▁appointment",-10.861489390681484],["▁expert",-10.861829704681352],["▁remainder",-10.862318316227231],["▁clay",-10.862734407976484],["▁dar",-10.86291530470069],["▁legislature",-10.863086999180688],["▁send",-10.863186863847504],["▁favor",-10.863369572859163],["▁palm",-10.863450663522537],["▁soil",-10.863476230076364],["▁evolution",-10.863491742647067],["lock",-10.863581722989023],["▁perry",-10.863882817279649],["▁alternate",-10.86399319811215],["▁photograph",-10.864582421533443],["formed",-10.864621769864288],["▁corporate",-10.86498669497087],["▁commande",-10.865170395135806],["▁arsenal",-10.865607156243506],["▁loop",-10.866621659044108],["▁stan",-10.86774991519281],["rus",-10.867804684005565],["▁respect",-10.868275286745789],["▁happy",-10.86828618919786],["▁colour",-10.869235423434006],["▁hms",-10.869316665086892],["eur",-10.869539462233355],["▁sum",-10.870168345854625],["▁objects",-10.870628437139407],["▁eagle",-10.87072907193426],["▁ru",-10.87092118499938],["▁torpedo",-10.871330484169452],["mark",-10.87149758876921],["ple",-10.872144282191494],["▁learned",-10.872280792067636],["▁formally",-10.872358011183142],["▁portrait",-10.872389337734916],["▁guardian",-10.8724709661587],["sistance",-10.87344253988472],["▁exercise",-10.873498498814865],["▁concerts",-10.873799198100665],["▁belong",-10.874569648721026],["▁carol",-10.875191373181542],["anna",-10.875274520859096],["▁fisher",-10.87579696896927],["▁reporter",-10.87619715481632],["▁faculty",-10.876275993698457],["▁achieve",-10.876488401451994],["▁lay",-10.877568384502922],["▁bobby",-10.8780471489661],["▁someone",-10.878193222142054],["▁arreste",-10.87841179661518],["bit",-10.878513452299332],["▁bristol",-10.878826025687404],["▁select",-10.879192791124732],["▁keith",-10.879357643488907],["ré",-10.879827703387564],["▁streets",-10.879855167952613],["lam",-10.880030093526528],["▁owners",-10.880505914317784],["▁bon",-10.880644410104315],["▁pearl",-10.88083061867208],["▁dakota",-10.881390589741711],["ged",-10.881587507624328],["▁bonus",-10.881975917560757],["▁stoppe",-10.882202251246104],["▁footage",-10.882481014373225],["state",-10.883072249492336],["▁tigers",-10.884282690024214],["▁curve",-10.884388624872456],["wide",-10.885217959143636],["▁huge",-10.885291485406762],["▁heads",-10.885822012679558],["▁pain",-10.885922982717304],["▁jesus",-10.886355594200923],["uz",-10.8872575491255],["▁picke",-10.887724368808636],["▁turner",-10.887870692700204],["ura",-10.888047554062808],["▁mat",-10.888161747736754],["▁ghost",-10.888555443892365],["▁survived",-10.888665138960612],["ical",-10.889435284355994],["row",-10.889628205551132],["▁canyon",-10.89010117791162],["▁sean",-10.890315661336125],["▁aftermath",-10.89076739044485],["▁euro",-10.890783477228135],["work",-10.890859114027664],["faced",-10.891036532562596],["▁anglo",-10.89143244696595],["▁mason",-10.891513859810257],["▁standards",-10.89154304125685],["▁images",-10.891699791487014],["▁installe",-10.893679894900444],["▁argument",-10.89392356065676],["▁micro",-10.894406767737626],["▁lloyd",-10.894550204000506],["▁threatene",-10.8946237644426],["▁fifteen",-10.894746674504551],["how",-10.894773123990763],["▁foster",-10.89523028554971],["▁gap",-10.89645323386491],["▁stages",-10.89648194491958],["ark",-10.896520709595748],["▁sar",-10.89700473592379],["which",-10.897847931982],["▁gilbert",-10.897989017762251],["▁dick",-10.898324581370227],["▁showing",-10.898398615684195],["▁shin",-10.898587804559858],["▁divisions",-10.899152875357682],["burn",-10.899795781005963],["ä",-10.900087284962618],["▁dancing",-10.900118944263587],["eddie",-10.90157932587746],["▁designation",-10.902161961680084],["▁inducte",-10.90307412501698],["▁bright",-10.903145547187652],["cra",-10.903311606233054],["▁larry",-10.903619932105752],["▁offering",-10.903928376633846],["▁drum",-10.903953650965606],["▁admitted",-10.90402408293168],["▁supposed",-10.905894353761385],["pu",-10.906017129575543],["▁protein",-10.906215529895592],["▁existe",-10.906252164957046],["fire",-10.906635652286967],["▁batt",-10.906883137388157],["bringing",-10.907098889593122],["▁weaken",-10.90779523998846],["best",-10.908031826295048],["▁pattern",-10.908574530322536],["▁pc",-10.90863415731394],["idae",-10.90888658198789],["▁solar",-10.909301640613457],["▁bin",-10.909508237014787],["▁mail",-10.910245128143686],["playing",-10.91089839883484],["form",-10.9110143020225],["▁skills",-10.911058606107405],["▁pure",-10.911581156792254],["▁raf",-10.911997287996456],["▁bid",-10.912101296207483],["▁scholars",-10.912450107971695],["▁possibilit",-10.913138844600695],["▁belgian",-10.913498659134104],["▁abbey",-10.913717840708346],["▁lifetime",-10.914105080491444],["▁begun",-10.915018356206255],["▁conclusion",-10.91521667426118],["▁realize",-10.915441085199047],["▁collins",-10.916178577619023],["▁sounds",-10.91634175662986],["▁discusse",-10.916535074355544],["▁hu",-10.91662688049146],["▁consistent",-10.916689707912242],["yer",-10.91677830812682],["▁superior",-10.91691935433105],["▁demonstrate",-10.917357124561038],["hill",-10.917694641050373],["▁marks",-10.91806103284692],["▁vincent",-10.918167350171224],["▁czech",-10.918252712395],["▁essay",-10.91865612049338],["▁wonder",-10.918853317432651],["are",-10.919471721367922],["▁poker",-10.91988105833344],["▁monster",-10.920147061206384],["▁outbreak",-10.920503400568371],["▁mining",-10.920995472614823],["▁govern",-10.921490042995773],["▁neil",-10.92159577211524],["▁instance",-10.921676695362011],["▁alaska",-10.92258825091365],["▁bow",-10.922802030806755],["▁demo",-10.92305671969152],["▁weapon",-10.923182472818844],["▁deliver",-10.92319290712966],["try",-10.923231527649897],["▁hindi",-10.923879804197622],["▁voices",-10.924632552930223],["▁sisters",-10.924907222252306],["▁breeding",-10.924988862320111],["▁estimate",-10.925392450374757],["▁resigned",-10.925621406956688],["vis",-10.925670393953627],["▁greg",-10.925933981345311],["▁playwright",-10.926272300012178],["▁boxer",-10.9263289814553],["▁neverthe",-10.926553857246708],["▁dialogue",-10.927201501684426],["▁involvement",-10.927586200886283],["▁authors",-10.927716973150252],["▁venture",-10.928511615491956],["▁josh",-10.928753242303742],["▁forty",-10.929290076775375],["kov",-10.92931711554414],["▁tre",-10.92938034473002],["view",-10.929852892054384],["▁easy",-10.930294932307223],["▁tone",-10.930729253346245],["▁staye",-10.931117098187643],["▁danny",-10.931374121932237],["lit",-10.931934301855136],["▁ambassador",-10.932188849616482],["▁missions",-10.93262767275737],["▁portrayal",-10.933314426553585],["▁bernard",-10.933485113639533],["▁collect",-10.93375774527429],["ery",-10.933785590318209],["▁notice",-10.934059490669192],["▁landscape",-10.934685090835304],["−",-10.934692220501748],["▁sustaine",-10.934739678117833],["▁loan",-10.935318888375788],["▁armor",-10.935839501207925],["▁lyrical",-10.936198685841624],["▁stood",-10.9362399076417],["▁gar",-10.936246464917737],["▁specialize",-10.936246688760647],["▁signing",-10.936612501100656],["▁edit",-10.936938368857632],["▁harvard",-10.937395940159936],["from",-10.938041763842143],["▁byzantine",-10.938365876657324],["▁genetic",-10.93913335886357],["▁consumer",-10.93945870282125],["▁methods",-10.93957529696597],["▁liberty",-10.9396269251305],["james",-10.94020531544598],["▁rico",-10.940231558352082],["▁poste",-10.940371205878932],["▁operational",-10.94040006436175],["▁destruction",-10.940493380215358],["▁moral",-10.940618938650603],["▁victories",-10.94082094534273],["get",-10.9411958202062],["▁topic",-10.942033648078748],["lim",-10.942582283461745],["▁cease",-10.942643579862985],["▁arrive",-10.942946914066868],["▁scholar",-10.943227802010997],["▁fat",-10.943470338009488],["▁denver",-10.943494054380563],["▁compile",-10.944014175100763],["▁terry",-10.944343749542684],["▁oliver",-10.944544489694248],["▁trek",-10.94515362808223],["white",-10.945202509575417],["▁cruise",-10.94594164562299],["▁churche",-10.94625696382913],["quipped",-10.946304646140169],["▁separated",-10.946650960552532],["▁phone",-10.946707489901424],["▁plane",-10.946786560555928],["▁bal",-10.946997706893],["▁biograph",-10.947332747865469],["▁defender",-10.94753640638463],["▁jews",-10.947727470494344],["▁clan",-10.947897466127444],["▁idol",-10.948255066376015],["▁keyboard",-10.949854956267975],["▁grown",-10.950330688119855],["▁typhoon",-10.951804937639627],["▁emotional",-10.95232357172902],["ists",-10.952371770278797],["▁describ",-10.95237260020926],["▁plaza",-10.953021843408685],["▁rivalr",-10.953182150446718],["▁boundary",-10.953341805759852],["▁communication",-10.95338141142953],["fish",-10.953646576800612],["▁alien",-10.953999395840524],["▁resolution",-10.95437228695366],["▁rat",-10.955179924201472],["▁charity",-10.955408426837783],["▁rang",-10.955572782023363],["▁kirk",-10.95575069225928],["▁objective",-10.956794330643772],["▁retreat",-10.9568598936799],["▁villa",-10.957013449241808],["▁tornado",-10.957115303319636],["*",-10.957509122908672],["chemistry",-10.957574726645728],["ock",-10.958224424565282],["▁courts",-10.958256876751872],["▁votes",-10.958819977130489],["▁investigate",-10.95957339690032],["▁chan",-10.959845293495867],["▁portuguese",-10.960178363732672],["▁concerned",-10.960194963645844],["▁replac",-10.96047678824288],["chen",-10.96079474312134],["▁interested",-10.960851428329716],["sex",-10.961379890386215],["▁tape",-10.961754418457176],["▁circulation",-10.962453151269155],["contested",-10.962512274562084],["changing",-10.962983589947669],["uri",-10.963249437871102],["lee",-10.963849542739156],["▁distinctive",-10.963922737516455],["▁denie",-10.964176025665758],["▁inhabitants",-10.964445855868249],["▁descent",-10.964547526376696],["▁males",-10.964942929086432],["▁definition",-10.965421448546376],["▁rio",-10.965442181605823],["▁jump",-10.96649505274664],["▁iraq",-10.966886162326178],["▁warm",-10.967168688898564],["▁arnold",-10.967621538745613],["▁dangerous",-10.96775165845282],["▁coat",-10.968264101916471],["▁cam",-10.968330200261782],["rich",-10.968764079261788],["▁delaware",-10.968816569591477],["▁reed",-10.96883589345264],["▁nominee",-10.969016057827664],["▁landfall",-10.96913183819328],["▁creature",-10.969269561701738],["profit",-10.969276644958851],["▁harvey",-10.970251143455526],["live",-10.970732062594116],["▁advertising",-10.970813714414094],["▁justin",-10.971070761980492],["▁sal",-10.971298751574505],["wall",-10.971410048782666],["rac",-10.972804745496775],["à",-10.973014850473763],["here",-10.97302606247147],["▁painter",-10.973286155318531],["▁plain",-10.97371822511301],["▁ready",-10.97376003450005],["▁amy",-10.97392584742529],["▁penn",-10.973933364613362],["▁hal",-10.974120047465004],["▁acoustic",-10.974278481511226],["▁falling",-10.974321853655097],["▁manufacturing",-10.974618860837358],["▁ji",-10.974688592022266],["▁recipient",-10.974819543180276],["body",-10.974919630592904],["▁concentration",-10.975031863587416],["▁fossil",-10.97522541675984],["▁apartment",-10.975314172170348],["william",-10.976129022640349],["▁cincinnati",-10.977230877583915],["play",-10.977659466779649],["▁sq",-10.9778740088687],["▁mario",-10.97789962032627],["▁roots",-10.978640289028249],["▁push",-10.978660141366722],["▁persian",-10.978880722759037],["▁routes",-10.979798975912802],["▁misse",-10.980023909295836],["▁celtic",-10.980481424598196],["▁intention",-10.980628713467228],["▁argentine",-10.980859825268425],["▁injurie",-10.981599763757885],["▁arkansas",-10.981872477142485],["▁hay",-10.982042792914031],["▁spiritual",-10.982570960778418],["▁indigenous",-10.98328477588228],["language",-10.983303688659936],["▁strategic",-10.983686572419938],["▁elsewhere",-10.984114290198344],["▁aboard",-10.984212677463663],["▁driven",-10.98497486008881],["robert",-10.985106639494564],["▁insurance",-10.985311537698284],["▁driv",-10.985455034822186],["▁painte",-10.9856401430061],["wrote",-10.985643987077664],["▁rifle",-10.985853054954893],["rick",-10.9861018322546],["mal",-10.986688498242367],["stan",-10.987000270755225],["borough",-10.987005152153174],["▁birmingham",-10.98713796148922],["▁beside",-10.987825783129471],["▁thin",-10.988223058144316],["een",-10.988296534480652],["▁affair",-10.988354543836698],["▁promotional",-10.98865528051539],["▁mas",-10.988742874483842],["▁hughes",-10.98898772683677],["ator",-10.989345362798852],["▁differences",-10.98939657377579],["▁microsoft",-10.989586664609485],["▁carrie",-10.98960654972536],["▁indoor",-10.989675311343062],["р",-10.990075865708365],["▁pirate",-10.990460261002957],["bert",-10.990601822289916],["ize",-10.990656299536845],["▁eighteen",-10.990927899641031],["▁reverse",-10.991146770720876],["▁guild",-10.99117742806454],["▁collegiate",-10.991264777546146],["▁pool",-10.991266801846695],["▁zero",-10.99145790774937],["▁quebec",-10.992231578518188],["gri",-10.993601788601255],["▁correct",-10.994010589677142],["▁hub",-10.994078456086571],["▁pack",-10.994145735705702],["ology",-10.9942135131794],["▁friday",-10.994250488282647],["affiliated",-10.994253298303828],["▁temporar",-10.994255137760312],["▁ralph",-10.994345237562808],["▁illegal",-10.994482439598135],["▁yankee",-10.995094127838712],["▁responde",-10.99520974121041],["▁spider",-10.995345835034584],["lus",-10.99582093088317],["▁treat",-10.996119485164806],["▁garrison",-10.99734987482167],["▁tenure",-10.99738309931477],["▁listing",-10.997772079823386],["▁bath",-10.998426839849412],["▁hans",-10.998526557532056],["▁provincial",-10.99859623705765],["▁kan",-10.99910114490362],["▁finland",-10.99931553879784],["▁customer",-10.999435150816092],["▁pitcher",-10.999484642754693],["▁cargo",-10.999797855132789],["▁interpretation",-10.999849360127437],["▁springs",-11.000326205507044],["▁meat",-11.000572073802877],["▁lions",-11.000948616183482],["ole",-11.001981394772434],["style",-11.00210539598334],["pre",-11.00221888754251],["trading",-11.002654072729165],["▁marc",-11.003246589389908],["▁context",-11.003320680647644],["▁update",-11.003421919363928],["▁northwestern",-11.003928243977269],["▁architectural",-11.004162140213566],["▁discussion",-11.004501237097031],["▁handle",-11.004580448256394],["▁bre",-11.00472851896614],["▁youtube",-11.004773320254058],["far",-11.004840857907206],["▁commentator",-11.005208537462122],["▁outdoor",-11.005771165938564],["▁enemie",-11.006008442796832],["▁batman",-11.006136919817669],["bound",-11.006522888825186],["▁tries",-11.007321304203735],["▁toll",-11.007624250261689],["▁modified",-11.007788316285112],["michael",-11.008127981720609],["▁engagement",-11.008641375756705],["▁coverage",-11.008940559537953],["▁atmosphere",-11.009742433964965],["▁characterize",-11.00983919378904],["▁roosevelt",-11.009950287333703],["▁resume",-11.0103763736806],["gue",-11.011247326910285],["anti",-11.011447200735654],["▁adults",-11.011614001323585],["▁suit",-11.01189757595082],["▁merchant",-11.012263769807282],["▁entrepreneur",-11.012864830853566],["▁spy",-11.013034134211328],["▁requirement",-11.01319209729064],["▁angle",-11.013715204373035],["▁arrest",-11.01421672729358],["▁toure",-11.0142923732562],["▁perspective",-11.014325295373274],["▁cho",-11.01521854197813],["▁woods",-11.01532412271403],["▁violent",-11.015367787348904],["▁kate",-11.01561374503746],["▁ownership",-11.015660206448551],["▁abuse",-11.015854413213374],["▁flows",-11.016335320253484],["▁possession",-11.016470587651384],["whils",-11.016862549729314],["▁militia",-11.017252757389238],["▁educate",-11.01733391372948],["ress",-11.01738752217705],["▁hor",-11.0174113560307],["▁depicte",-11.017491463094292],["ves",-11.018080232421967],["▁hearing",-11.01834739435581],["▁uniform",-11.019021961252172],["ku",-11.019966046997864],["hun",-11.020037236156924],["▁tales",-11.02008080648784],["▁hungary",-11.020329886582218],["▁pu",-11.020792277400863],["▁recommende",-11.021050915407926],["▁dubbe",-11.021697506564326],["▁heaven",-11.021833604487746],["mor",-11.02199313967461],["ative",-11.022036182912492],["▁hugh",-11.02314527299666],["▁kw",-11.023171683967432],["▁competitive",-11.02324658397539],["▁etc",-11.023332201066284],["▁zoo",-11.023553314117716],["▁cloud",-11.024016177845068],["elli",-11.02486791774536],["▁flights",-11.02543828591419],["▁alice",-11.025488276016764],["н",-11.026452450450194],["▁intense",-11.026706834521049],["▁ward",-11.02702929435672],["mes",-11.0271879939362],["jan",-11.027228717931994],["▁wearing",-11.027237900479856],["▁congressional",-11.027367017350178],["▁spoke",-11.02749334228618],["isation",-11.02750292754703],["▁constitutional",-11.027807491370606],["avi",-11.027866161973323],["player",-11.027902827788154],["▁signature",-11.0279909753422],["▁sudden",-11.028850189125942],["▁nova",-11.029269582597594],["▁ages",-11.029528452524088],["bor",-11.029790907934226],["▁suite",-11.029830901286292],["▁differ",-11.030018465660408],["▁shah",-11.030399443780782],["▁sullivan",-11.030800053106448],["▁athletes",-11.031116792850446],["▁boulevard",-11.03116957111556],["▁jefferson",-11.031194654468612],["▁boss",-11.03178628662369],["▁restoration",-11.032042441853116],["▁flagship",-11.032091356475831],["▁resemble",-11.032185812124103],["▁enable",-11.032296591162432],["▁fifty",-11.03261867340376],["▁madison",-11.032752144707588],["▁fishing",-11.032797026204657],["▁bryan",-11.032945981132125],["action",-11.032994778177793],["▁facing",-11.033014463420624],["▁gaming",-11.033063672218388],["▁philosopher",-11.03351732950943],["▁jacob",-11.03356936203788],["▁discuss",-11.03360881048015],["▁birthday",-11.034510031048928],["lay",-11.034570034083291],["▁mirror",-11.034595604075792],["▁vampire",-11.03465041923472],["▁centers",-11.034815403566672],["▁clean",-11.034962426158655],["▁sort",-11.037289491267163],["▁lit",-11.037293606030506],["▁partie",-11.03736817256266],["▁spoken",-11.03764382365343],["founder",-11.037863742015467],["▁branche",-11.038053984204131],["bre",-11.038441990519576],["ú",-11.038578679022663],["▁decrease",-11.03884306374066],["▁bombing",-11.0389127126718],["▁lang",-11.038989371483664],["▁pete",-11.039280594582502],["▁evolved",-11.039381376484728],["▁antholog",-11.039512801220852],["hom",-11.039584845265606],["under",-11.03996064411885],["▁finale",-11.04032835962723],["▁mainland",-11.04041749497125],["▁mega",-11.040737820688426],["▁masters",-11.04096174114114],["▁dublin",-11.041021255716617],["▁convoy",-11.041217015874002],["▁raider",-11.041351306454976],["▁glacier",-11.041843257905317],["▁sufficient",-11.042272492526516],["▁interaction",-11.042422732029715],["cut",-11.042856738360982],["▁luc",-11.043447781606956],["ova",-11.044053006247411],["▁artwork",-11.044534532163825],["stock",-11.045545902084246],["gre",-11.045604290618495],["▁dennis",-11.045781505175206],["▁statue",-11.045828847345833],["▁partially",-11.046300090757828],["▁accompany",-11.046360695036402],["▁oz",-11.0467316437026],["▁industries",-11.04679349172346],["▁nineteen",-11.046860299939471],["▁happene",-11.047309967284257],["david",-11.047495839709724],["wing",-11.047541353845537],["▁mills",-11.047546469644567],["▁nationality",-11.047881555561435],["▁ports",-11.048008119678691],["▁mint",-11.0481114242248],["▁expose",-11.048414974582652],["board",-11.048723364868597],["▁comparison",-11.049167284839449],["▁rebellion",-11.04917284157646],["▁nicholas",-11.049342029356918],["▁dun",-11.049361061027614],["▁warriors",-11.049664182375093],["▁helen",-11.05043942355597],["▁sen",-11.050458060233094],["▁smooth",-11.050923229839004],["▁agricultur",-11.051098546715467],["▁rangers",-11.051800707847114],["▁else",-11.052957419025704],["▁hear",-11.053012076320046],["▁tha",-11.05319969547148],["erie",-11.053388543863974],["▁affiliate",-11.053523117189831],["good",-11.053738610874376],["▁conductor",-11.05397979321894],["sville",-11.054827265563327],["▁def",-11.055537533445264],["aimed",-11.056410394583242],["▁organise",-11.05642600935225],["▁croatian",-11.056816869326832],["▁releas",-11.056827970993991],["▁ferry",-11.056877103945528],["hil",-11.056974722789436],["▁yorkshire",-11.05698392783114],["▁israeli",-11.057007486102046],["▁ideal",-11.057308075064196],["gram",-11.057310943421248],["▁anchor",-11.058107520250164],["▁richmond",-11.058537120697196],["▁tanks",-11.058686396669351],["▁phrase",-11.059386042111488],["▁charte",-11.059519763134103],["▁remembere",-11.059633299374372],["master",-11.05974618640584],["▁che",-11.060486796810048],["▁arrangement",-11.060637763704154],["rian",-11.060789075627865],["paul",-11.060948051908191],["▁guilt",-11.061387068160055],["▁stable",-11.061475393699556],["▁stuart",-11.062301457975384],["▁linked",-11.062494670609547],["▁luke",-11.062557095724362],["phy",-11.062882363775444],["▁closing",-11.062889155054448],["▁diet",-11.063294511175974],["▁column",-11.063427274167427],["▁obama",-11.063758516216629],["▁delay",-11.063915122166698],["▁expression",-11.06398738897991],["▁businesse",-11.064161892190848],["cap",-11.064954431200745],["▁traded",-11.06498798623985],["tenance",-11.06507502411235],["▁blu",-11.065389502176922],["▁legislation",-11.065514199275848],["space",-11.06604540317558],["▁malaysia",-11.066223347998845],["▁cancelle",-11.067167487951282],["▁shares",-11.067373681794402],["nce",-11.067519681904852],["▁rocky",-11.067539790620618],["▁nashville",-11.067614752433208],["▁kar",-11.067712143049327],["▁membership",-11.067716907022447],["▁sta",-11.068416913603093],["▁isolate",-11.068841389569204],["▁ruling",-11.069229827274864],["▁asset",-11.06926817157938],["lian",-11.06994514539779],["▁gets",-11.070142096962131],["▁ign",-11.070179663191436],["▁horn",-11.070484052083572],["▁finn",-11.070551322107058],["zen",-11.071240740217071],["▁closer",-11.071313373320598],["▁relocate",-11.071412244772414],["å",-11.071773310127622],["anne",-11.071881498251855],["▁dawn",-11.072164947364596],["▁catch",-11.072262651480536],["▁scientist",-11.072735908189683],["▁inaugural",-11.072792634348689],["▁gospel",-11.073239737112996],["▁pr",-11.073757279302807],["▁brad",-11.073980976461192],["▁instrument",-11.074211610129616],["▁tam",-11.07427869781713],["▁reprise",-11.074892935350489],["▁bio",-11.07505332744926],["▁mcc",-11.075059107160849],["▁bridges",-11.075059551430556],["▁shaw",-11.075431594235749],["▁predict",-11.075495691310952],["ika",-11.076177018095215],["▁cameron",-11.076214814295916],["▁spears",-11.076525585600532],["▁oversea",-11.07654173069469],["▁departe",-11.076728324984876],["▁sleep",-11.07684014651493],["▁tribes",-11.076903904124183],["▁psychological",-11.077058182097517],["▁lucas",-11.077374881944062],["super",-11.077569310798642],["née",-11.077602270126045],["▁hindu",-11.077622658770338],["▁lineup",-11.078080220144956],["down",-11.078156723693644],["▁speaker",-11.078315051647342],["▁pie",-11.078434623995731],["▁gender",-11.078837511830192],["itz",-11.078845926106824],["▁tea",-11.078972532304943],["▁absence",-11.079455687480714],["ory",-11.07951661473784],["▁radical",-11.079808430256229],["▁categorie",-11.080124349774596],["▁leslie",-11.080365100693902],["▁eponymous",-11.080570389371102],["▁remixe",-11.080964740148817],["▁alcohol",-11.081008670040829],["▁memoir",-11.081032161762426],["▁shift",-11.081303360585329],["▁charges",-11.082052096181448],["▁difference",-11.08213929625701],["mic",-11.082510208039563],["▁shadow",-11.082844722068138],["▁initiative",-11.08303516038976],["▁false",-11.083794573055686],["▁moves",-11.084125504452224],["▁statistical",-11.084818117676978],["horn",-11.085122156572009],["▁merger",-11.085197019746234],["▁pianist",-11.085238913644506],["▁visible",-11.08540865666045],["worth",-11.08561674058945],["▁scientists",-11.086445081117708],["▁jennifer",-11.08651519243585],["sun",-11.086548617522215],["▁queensland",-11.086781142435113],["▁socialist",-11.087017707191158],["▁wallace",-11.087193754969508],["▁contribut",-11.087697753795316],["▁blind",-11.08796724757481],["▁ch",-11.088040221003975],["▁profit",-11.08804431082695],["▁quest",-11.088154818628428],["▁lowest",-11.088602249545588],["▁croatia",-11.08903730630104],["▁hamlet",-11.089188771904263],["▁companion",-11.089340303850976],["▁enterprise",-11.089658117583705],["▁northeastern",-11.090388241084831],["▁photography",-11.090600232319607],["▁administer",-11.09088980749788],["▁barbara",-11.090963201544357],["▁seed",-11.090991116165196],["hara",-11.09111764962827],["▁everyone",-11.091147694163874],["ami",-11.091654197155146],["▁gaga",-11.092265233218566],["▁suffering",-11.092370738482572],["▁rivers",-11.092798894069569],["▁concentrate",-11.09288280978898],["▁brooks",-11.093616206395836],["▁graphics",-11.093861402148868],["▁anyone",-11.093912313814696],["▁insect",-11.09465138862656],["ked",-11.09579675128168],["harry",-11.09601189655405],["▁pace",-11.096256283765737],["▁tommy",-11.096352974304494],["beat",-11.096428258045243],["▁concern",-11.096458582128689],["▁seeing",-11.097230313710268],["▁bur",-11.097367625807465],["▁susan",-11.097389214701051],["▁monte",-11.097664255301112],["▁recalle",-11.09772527488972],["▁employ",-11.098172198447443],["▁victorian",-11.099000240619931],["passes",-11.099704783291262],["▁xi",-11.09982515522859],["▁devil",-11.099845237121777],["▁storage",-11.099969102510412],["▁milan",-11.10026875391428],["blue",-11.100338673933583],["cri",-11.100386718459186],["ille",-11.100805531289618],["▁predominant",-11.101308199961611],["▁wheel",-11.101946945238964],["enberg",-11.102246940398867],["▁truck",-11.102862375691467],["▁delayed",-11.103044839741042],["▁finnis",-11.10315301319947],["▁drivers",-11.10426863928596],["▁rachel",-11.104506890994204],["▁answer",-11.104728893497551],["▁shark",-11.10520546223389],["▁nathan",-11.105249121524013],["▁policie",-11.105313626263708],["▁cur",-11.105780952364686],["▁predator",-11.106007236633015],["▁option",-11.106012983045376],["▁jerem",-11.10626769761374],["▁kin",-11.106427206440651],["▁wear",-11.10652813002894],["▁agents",-11.108307471234918],["▁understanding",-11.108528384947771],["▁rogers",-11.108934488837448],["▁flew",-11.108978520835135],["▁lakes",-11.109025105629875],["▁fourteen",-11.109417383838512],["sburg",-11.110006057312194],["▁sixteen",-11.110534013873432],["▁concrete",-11.110690423628794],["mus",-11.111028981825934],["▁tiger",-11.11126202437416],["▁aaron",-11.111478993622528],["▁seventeen",-11.111486393674594],["▁prey",-11.111522290592198],["point",-11.111740799085922],["▁wrong",-11.111811224382937],["▁wish",-11.112109685672957],["▁survive",-11.112207361471986],["▁stem",-11.112300794563108],["▁streak",-11.11233440801515],["▁tension",-11.11311568256351],["▁protest",-11.113121455555362],["▁extinct",-11.113416411289244],["▁southwestern",-11.114147042114787],["▁alive",-11.114148021304969],["▁percentage",-11.1141657843335],["▁extent",-11.114378836139368],["knots",-11.114824506370628],["▁explosion",-11.11506830700896],["▁parody",-11.115300128315107],["▁identify",-11.115539037515354],["ī",-11.115761307647306],["▁cotton",-11.115779190760382],["▁exile",-11.116084754892686],["▁grass",-11.116242206851744],["▁diverse",-11.11624907131986],["▁roberts",-11.117031541691556],["▁attempting",-11.117165442760792],["list",-11.117298765888162],["▁clothing",-11.117388195114511],["▁lab",-11.117686876825177],["rab",-11.118200412772616],["▁toppe",-11.1182257202399],["▁locomotive",-11.11833601068654],["▁margin",-11.118363312394925],["▁contestant",-11.118375874397731],["▁copy",-11.118787091229589],["▁touch",-11.1187918782946],["home",-11.118880019754418],["rat",-11.119392913530636],["▁pitche",-11.12037951551572],["▁researcher",-11.120535261811623],["▁sporting",-11.121041007770508],["▁intellectual",-11.122545249959083],["▁indonesia",-11.122739738639623],["ester",-11.122751590985075],["▁tend",-11.12288157045576],["▁leo",-11.12307466184516],["bad",-11.123845268169466],["▁cave",-11.124077465750428],["▁colleague",-11.124134807656771],["eck",-11.124153508184936],["landed",-11.124186526071853],["▁spending",-11.124571707290828],["▁valuable",-11.124581526758805],["two",-11.125134128926716],["experienced",-11.125164554611114],["▁markets",-11.125450122348502],["▁joan",-11.125586903357863],["▁walking",-11.125687891590747],["▁nielsen",-11.125750846025044],["▁disbande",-11.125772087542693],["▁testing",-11.125772672569298],["▁utc",-11.126107919518455],["▁dual",-11.126134646559708],["▁slave",-11.126146834972504],["march",-11.12624738941668],["tim",-11.12632107011363],["▁missile",-11.126522540891475],["▁tyler",-11.126704485558289],["▁kurt",-11.127177895096285],["▁goods",-11.127943157705552],["▁helping",-11.128004415689292],["▁subjects",-11.128316886529651],["▁mulder",-11.12837311004268],["▁harbour",-11.129723463104082],["▁danger",-11.130103488997138],["little",-11.130835958533876],["▁hbo",-11.131491832904429],["▁spend",-11.131970411437402],["▁mercury",-11.132197132907066],["▁neck",-11.13333059971242],["▁electrical",-11.133943259045925],["▁electoral",-11.135239174139764],["▁iran",-11.135281457992743],["▁mag",-11.135781046526509],["▁continent",-11.135828223761386],["▁carlos",-11.135977337532376],["wen",-11.135990024959414],["▁partners",-11.13610253471666],["ward",-11.136134172492932],["▁riot",-11.136252066426898],["▁physician",-11.136305977962724],["ification",-11.1363234256741],["▁dismisse",-11.13636257605244],["▁newton",-11.136525556558084],["▁shelter",-11.13721665900967],["hit",-11.137544768829583],["▁kick",-11.137907191693284],["▁bachelor",-11.138431272162284],["▁mccartney",-11.13890853127988],["▁dylan",-11.139405173659265],["▁convicte",-11.139428379308072],["brook",-11.139796764912257],["▁choose",-11.139880087611235],["▁photo",-11.139909526775694],["▁duck",-11.140212339479444],["▁mrs",-11.140913023235028],["▁settler",-11.141099775221344],["▁munich",-11.141289572792724],["▁delta",-11.141311527531776],["▁catherine",-11.141318740319075],["▁wo",-11.142116897527924],["▁fastes",-11.142196209972148],["▁negotiation",-11.142308831540474],["▁simultaneously",-11.142335426207756],["▁nest",-11.1423376664463],["bass",-11.142374031982143],["▁flank",-11.142637379402284],["▁conceive",-11.14295303804494],["▁seeking",-11.143633350591305],["lem",-11.144075592529449],["gel",-11.145277854423783],["▁window",-11.14531949997208],["▁literal",-11.145550014968183],["▁afternoon",-11.146024884700504],["rov",-11.14766208087787],["▁remnant",-11.147692805836636],["▁bor",-11.147816627795944],["▁participant",-11.147931257416342],["▁reservoir",-11.14816992052284],["▁harold",-11.148172089287906],["hol",-11.148361220045024],["▁mere",-11.14858168638592],["▁beast",-11.148674836799692],["▁villain",-11.148912840629883],["▁printe",-11.149005158749253],["▁immigrant",-11.149364189093186],["pal",-11.149677601696052],["▁tip",-11.149890325491636],["ς",-11.150559693398096],["mos",-11.150814740918262],["▁villages",-11.150821215818516],["▁arch",-11.150907086599284],["▁functions",-11.151184109222068],["▁mathematics",-11.151517207974402],["vor",-11.151520579857682],["▁provision",-11.151561943994231],["▁pole",-11.15166114095816],["▁initiate",-11.151667593986613],["ible",-11.151772683443593],["▁gen",-11.152562524390271],["▁talles",-11.152594460938548],["▁manuscript",-11.153675057240966],["▁profile",-11.153877868211346],["las",-11.15507915855848],["und",-11.15520133639543],["▁mono",-11.15520937149751],["▁pushe",-11.155582354127118],["▁montgomery",-11.15583738347937],["▁representation",-11.156163306334232],["▁leonard",-11.156168444316],["▁mechanical",-11.15701368022466],["▁clock",-11.157640537081976],["▁todd",-11.157780996435148],["▁qualified",-11.157859836144407],["▁elite",-11.157953224297527],["▁experiment",-11.158907385807462],["▁borders",-11.158989263084887],["▁debt",-11.159012472213837],["▁tight",-11.159677902489546],["▁aerial",-11.15979954532216],["▁atomic",-11.16000633330067],["▁bound",-11.160664913055538],["▁eve",-11.160782635662688],["▁prominence",-11.161143076464745],["wer",-11.16157321934624],["▁melod",-11.16160740610491],["▁earthquake",-11.162123675189749],["▁gates",-11.162150781455187],["▁emi",-11.162321493618071],["▁massacre",-11.16237630037451],["woman",-11.162452013166329],["▁defende",-11.16250573734229],["band",-11.162614346907183],["late",-11.162953863388283],["▁readers",-11.162978613286931],["ique",-11.163314298227869],["▁radar",-11.163729993718222],["nell",-11.163897147689994],["▁kiss",-11.164408943331187],["▁affect",-11.16445440351749],["general",-11.164715329389413],["iata",-11.164991797702076],["▁afghanistan",-11.1650214364213],["▁aged",-11.165865864145818],["▁mutual",-11.1662356455683],["bafta",-11.166727026302814],["▁elementary",-11.167112350851813],["▁pra",-11.167475363453848],["▁hybrid",-11.167692169409031],["▁morrison",-11.1677129323888],["ø",-11.168041459080683],["▁cream",-11.168234825677796],["log",-11.168272730349084],["▁arcade",-11.168450567121674],["▁balance",-11.168635130547596],["ious",-11.168952785810497],["▁vertical",-11.169130396021048],["▁teammate",-11.169236284945988],["⁄",-11.169642397968046],["▁owen",-11.170670936945358],["ego",-11.170706467315284],["▁gross",-11.170745122360437],["▁graphic",-11.171034156891272],["▁pale",-11.171072377284265],["▁capitol",-11.171107118167876],["▁twentie",-11.171526548173494],["▁indians",-11.172468927962605],["abilities",-11.172514736835984],["▁marsh",-11.173013951287148],["▁divorce",-11.173307198654031],["▁tier",-11.17339662901616],["roy",-11.173982576213408],["▁diameter",-11.174041915487102],["▁detaile",-11.17442495171781],["▁br",-11.175031941862455],["mate",-11.1750518353998],["▁dame",-11.17530377777966],["▁scully",-11.175389567680416],["▁chuck",-11.175462903529857],["▁marshal",-11.17578928538084],["cer",-11.175896493020378],["running",-11.176963561252578],["▁cuba",-11.177257916079965],["▁spa",-11.177291900225065],["▁sword",-11.17746265698656],["▁brewery",-11.177471951489112],["▁gothic",-11.177712173572502],["▁sketch",-11.17771487048951],["including",-11.177945428932672],["▁leon",-11.178097986507586],["▁liquid",-11.17821560486492],["▁saga",-11.1786535073409],["▁surprise",-11.179001376921695],["▁minorit",-11.179008549917814],["▁jurisdiction",-11.179666620829687],["▁kon",-11.179671688500452],["▁consequence",-11.179937868192711],["▁advice",-11.179949933734417],["▁friendship",-11.180644431604527],["▁guinea",-11.18094048761358],["▁burton",-11.18141426091569],["▁bas",-11.181440015831456],["▁marry",-11.18191213662356],["▁edwards",-11.182041904052475],["▁deaths",-11.182122702748272],["hour",-11.182307125793514],["▁intersect",-11.182312405686922],["▁edinburgh",-11.182899014662484],["▁cop",-11.183114011863244],["▁curtis",-11.183245050062077],["▁choir",-11.184153054218308],["▁barn",-11.185447454419688],["related",-11.185455814484566],["▁coalition",-11.18563653545647],["emi",-11.186336833014984],["▁saxon",-11.18644817123136],["▁casting",-11.186511910411507],["▁parade",-11.186691383047243],["▁attendance",-11.186940407776012],["▁interactive",-11.187669457812024],["▁hook",-11.188123197121156],["▁layer",-11.188154072504334],["lum",-11.18829207052136],["▁inhabit",-11.188300394708437],["▁wire",-11.188349844718118],["▁wider",-11.18851259386577],["▁funeral",-11.18873823874311],["bul",-11.188995175253396],["▁root",-11.189243653575266],["▁smoke",-11.189283700728256],["▁rookie",-11.18933087268894],["▁cannon",-11.189724738683063],["▁ronald",-11.189814918788391],["▁spencer",-11.189888013591396],["▁districts",-11.190064817734568],["▁highland",-11.190137358990082],["▁physicist",-11.190589442712984],["▁singh",-11.190814219998106],["▁disorder",-11.190839115421904],["▁harmon",-11.190864126657369],["▁galaxy",-11.191085009593166],["formula",-11.191282977456671],["▁cry",-11.191527674990972],["▁vienna",-11.191847971630766],["▁eagles",-11.192001523846278],["▁virus",-11.19203190860095],["▁athlete",-11.19203923233281],["▁mouse",-11.19209197075389],["ries",-11.19261671744056],["dell",-11.193220232686365],["city",-11.193564842856157],["▁favour",-11.19402977623652],["▁gear",-11.19409505756002],["▁titan",-11.194353108984789],["▁oakland",-11.194541732375423],["▁bible",-11.194573349475917],["zan",-11.19465125104854],["▁candidates",-11.194656378222946],["▁flash",-11.194748550825054],["▁paramount",-11.195098154539364],["▁witnesse",-11.195511930332396],["▁contribution",-11.195608938684083],["nate",-11.19634174867542],["fixed",-11.1964434877441],["▁noble",-11.19657881829978],["▁cl",-11.196887440085993],["▁lou",-11.196890355369437],["gor",-11.196975963817518],["hood",-11.197098078883933],["▁reside",-11.197113026990875],["▁understand",-11.197181028991409],["▁artificial",-11.197586847631264],["▁commissioner",-11.19809945841787],["▁doubt",-11.198303415257437],["cast",-11.198360498909008],["▁josé",-11.198370980543896],["▁banner",-11.198460000217228],["fiction",-11.198663108999618],["bri",-11.198780166731195],["▁dense",-11.19901620840667],["▁competitions",-11.19916966085474],["▁teenage",-11.199682676305672],["feld",-11.199819568278384],["▁bang",-11.199884294198982],["august",-11.20020343884036],["▁earn",-11.200305346073776],["▁celebrity",-11.201118213448336],["▁embark",-11.201378430160569],["▁blake",-11.20142137881991],["▁widow",-11.201939393972136],["high",-11.202404943607272],["▁swimmin",-11.202565574007997],["▁chronicle",-11.202824170338593],["▁baptist",-11.2029022860755],["▁recreation",-11.20304191107667],["▁prove",-11.203233918292776],["▁files",-11.20334504933158],["▁scandal",-11.20350811190908],["▁eggs",-11.203720924821315],["nam",-11.20374737563059],["▁helicopter",-11.203876176213528],["▁citizen",-11.204057182853171],["▁colonie",-11.204439521527163],["е",-11.204553074811905],["▁factors",-11.205305242126906],["▁steal",-11.20537294504352],["▁taiwan",-11.20564290470094],["▁shots",-11.206314630982575],["▁fra",-11.206347440870944],["▁bro",-11.206889836148068],["▁trap",-11.207036910269789],["▁regime",-11.207234860750166],["▁cardinals",-11.207244413989503],["some",-11.207320032684844],["quin",-11.207359883602512],["▁bennett",-11.207640177559268],["▁competitor",-11.20766886571056],["▁copper",-11.20767681528448],["▁remove",-11.20841298152961],["▁lesser",-11.208430998899011],["▁dominant",-11.20843321922809],["▁escort",-11.209062581219609],["▁armenian",-11.209661515222274],["app",-11.209679123726994],["▁error",-11.209825075881236],["▁butler",-11.209938574716052],["▁fin",-11.210026189548277],["▁neighbor",-11.210177580548756],["▁combine",-11.210280040921496],["ike",-11.210617833657317],["tory",-11.210744617377316],["▁mytholog",-11.21080866538244],["▁ticket",-11.210916173836544],["▁undergraduate",-11.211008358591016],["▁somerset",-11.212239299373117],["▁vast",-11.212506629144748],["▁tra",-11.212631690452811],["▁fortress",-11.213362408848104],["▁kenneth",-11.214595256515308],["▁parkway",-11.21473314215728],["▁treate",-11.214790482456335],["▁requeste",-11.215317568203416],["▁bag",-11.215436838206577],["boy",-11.216321442588308],["▁monitor",-11.21647311010401],["▁approval",-11.216830389019307],["▁lodge",-11.217087089029656],["▁users",-11.217460513752224],["hall",-11.217633045403206],["▁battles",-11.21796955597604],["▁burns",-11.218033755235703],["▁faction",-11.218793483603257],["▁manor",-11.21926321564698],["mat",-11.219266895258178],["▁observer",-11.21943860873172],["ore",-11.219790895425348],["▁corn",-11.220253741092485],["▁seize",-11.22042648057509],["heir",-11.22057955057158],["▁manag",-11.22060769480604],["▁bengal",-11.220636351786132],["▁julian",-11.220693292655016],["▁gla",-11.220814622383411],["▁minimum",-11.220930092720614],["▁fate",-11.221019316195092],["▁deploye",-11.22137447680199],["▁values",-11.221649036305523],["▁firing",-11.22201498675376],["▁sci",-11.222166118048431],["went",-11.222662955728998],["▁bone",-11.222829530203096],["▁primetime",-11.222939304097256],["▁dynamic",-11.223260677263037],["▁revenge",-11.223273116299175],["▁dozen",-11.22422065040862],["▁processe",-11.224503515237693],["▁delegate",-11.224530586317996],["aga",-11.224724249576155],["▁islamic",-11.22505222485045],["▁hood",-11.225066271018996],["▁wizard",-11.225142181579102],["▁joy",-11.225197755287796],["▁taste",-11.225207713439389],["▁hole",-11.22559689090231],["▁adopt",-11.22566911259443],["▁rounds",-11.225938678753012],["citing",-11.226086237389715],["▁hammer",-11.226376761588412],["▁blame",-11.227381561297566],["▁mansion",-11.227393986865629],["▁scholarship",-11.22742316377118],["▁package",-11.227484159243888],["▁scout",-11.227758386441902],["▁cards",-11.227837282541811],["card",-11.22808938651069],["▁mines",-11.22961181336572],["▁strict",-11.229658380588717],["▁dress",-11.229674485558911],["▁unincorporate",-11.23099129378529],["▁statistics",-11.230991571087008],["▁legs",-11.231102178706236],["▁polar",-11.231116637557164],["▁pas",-11.231276630611674],["▁portugal",-11.231510336340556],["▁outlet",-11.2315483585109],["▁introduce",-11.231610838431957],["▁pageant",-11.231669802121578],["▁kra",-11.231804190349711],["▁sol",-11.231914664678635],["▁franco",-11.232260680299882],["but",-11.232486574587528],["▁remember",-11.23273466684234],["▁revolt",-11.233085410555018],["▁voyage",-11.23370610871634],["▁recruit",-11.233782640833432],["making",-11.23386319100545],["▁frontier",-11.234636727778804],["▁quiet",-11.234708766711748],["uck",-11.234784277963602],["▁check",-11.234853162242867],["▁archbishop",-11.234889789693575],["▁donate",-11.235251002461906],["hur",-11.235420620904785],["pet",-11.236124910422744],["▁cox",-11.236460764372918],["▁assiste",-11.237068067738724],["bank",-11.237737288202371],["shan",-11.237880679796929],["spanish",-11.23792135195707],["cus",-11.23801601245852],["key",-11.238019772963154],["▁telugu",-11.238154340833418],["room",-11.238571538550657],["▁photographer",-11.238702154569882],["▁travele",-11.23881930586658],["▁demolishe",-11.239144633804216],["▁riding",-11.239532192802567],["▁swing",-11.239596290792308],["▁expensive",-11.239846656412883],["nick",-11.240122814965368],["▁holmes",-11.240338417012856],["▁raymond",-11.240422064854323],["▁ivan",-11.240558572454336],["▁leaf",-11.24085611851343],["▁eleventh",-11.240988874589547],["▁resolve",-11.241145992304077],["▁shear",-11.241325061400527],["▁ongoing",-11.241710220387576],["vol",-11.241841040105411],["▁descendant",-11.241852175990404],["lot",-11.242555374825596],["▁laura",-11.242622207245962],["▁warfar",-11.2427818365742],["▁fitte",-11.2429777691303],["▁attitude",-11.242990933145771],["▁barcelon",-11.24351600441902],["▁tampa",-11.244923272070553],["wear",-11.245164734256642],["▁waste",-11.24531168806774],["▁gro",-11.245394570333174],["▁till",-11.245620276982276],["▁withdrew",-11.245882494795676],["▁hoped",-11.246128108799226],["▁nixon",-11.246145952733542],["▁honorar",-11.24621327255278],["▁bowling",-11.246315904316084],["▁revive",-11.24650029712923],["rik",-11.24652458390313],["rca",-11.246643444659334],["▁respective",-11.24726381392282],["▁switch",-11.247465453726004],["▁drag",-11.247610771245316],["comprising",-11.247999821676956],["▁abu",-11.248313587263787],["▁dresse",-11.248583734314066],["▁char",-11.248838953515424],["▁chef",-11.24890609568393],["▁commence",-11.248929084262278],["ame",-11.24895400334324],["▁brook",-11.249280213983756],["▁scar",-11.2493350880934],["▁app",-11.249672024832703],["▁pierre",-11.249771071094653],["▁sega",-11.249825685287416],["▁knights",-11.24994498837419],["▁tackle",-11.250145634888575],["▁watching",-11.25066440948988],["▁stern",-11.251228274662491],["▁parliamentar",-11.251284941773436],["▁tune",-11.251323462760858],["▁impossible",-11.251424314719538],["rem",-11.251687600937196],["▁teenager",-11.252109549581638],["▁libretto",-11.252219188218826],["▁beijing",-11.252219311795002],["zhou",-11.252568903194414],["▁kr",-11.252751886105171],["▁aside",-11.253122009801828],["▁albany",-11.253461926728958],["cre",-11.254174410816695],["▁rad",-11.254828047853817],["ー",-11.25486563745361],["▁instruction",-11.255063200547369],["▁renaissance",-11.255303196144409],["▁favorabl",-11.255834254068048],["hal",-11.25587519410029],["▁jake",-11.255942298339956],["bus",-11.256086443242191],["▁revise",-11.256258452188174],["▁sherman",-11.256298813499198],["fall",-11.256571325786576],["▁gill",-11.25668008736612],["▁aria",-11.256817563900418],["▁itunes",-11.25707554695109],["pol",-11.257178796449582],["▁isbn",-11.257207648740827],["▁tributar",-11.25726412934848],["▁phillips",-11.257394728866444],["▁herald",-11.257438220251013],["▁germans",-11.257485710167016],["▁shipping",-11.257521348396946],["aire",-11.257799162715742],["с",-11.257937057951436],["ldest",-11.258375191275254],["▁succession",-11.258489015517345],["▁autumn",-11.258568244729371],["▁cro",-11.258701247340628],["▁tactic",-11.258872109143237],["▁quote",-11.259025757909289],["mond",-11.25949967573129],["▁ruth",-11.259690528466718],["▁delhi",-11.259693236282716],["▁frequenc",-11.259722531546291],["night",-11.25972391875614],["▁construct",-11.259792255335007],["▁stretch",-11.26005979529527],["largest",-11.260441543968366],["▁sculpture",-11.260496195295207],["▁surgery",-11.260737752617382],["mitted",-11.260789491685522],["▁orland",-11.26106516095462],["ral",-11.26111097994582],["▁wil",-11.261280661315068],["▁lynch",-11.261468249371015],["▁queens",-11.26197997278083],["▁prospect",-11.26200404256931],["ão",-11.262653020602142],["ichi",-11.262809238163614],["▁mur",-11.2632168889353],["til",-11.263378148632146],["▁ser",-11.263378642864629],["▁columbus",-11.263413871060369],["▁bypass",-11.263715647473308],["▁espn",-11.264589646967377],["peter",-11.26459941548845],["met",-11.264688860537294],["▁strange",-11.264790759939752],["▁fill",-11.264976827038936],["original",-11.265139231098685],["▁appropriate",-11.265519013980413],["▁breakthrough",-11.2655671418379],["▁presentation",-11.265721727085875],["▁jobs",-11.2663075520104],["▁vii",-11.266612315154454],["▁coup",-11.267486280177142],["▁engineers",-11.26757303520825],["▁assemble",-11.267673226437918],["▁chicken",-11.268055426901048],["mura",-11.268176686862532],["▁bri",-11.268396432788034],["▁waves",-11.268471760055617],["uni",-11.268572116816104],["▁madrid",-11.268802757690766],["▁teeth",-11.268806511470377],["▁delivery",-11.268887787304417],["▁procedure",-11.26931520737812],["▁economics",-11.269555991617286],["▁bangladesh",-11.269584676677765],["▁practical",-11.270071989597207],["▁funde",-11.270375082924998],["▁remote",-11.270463622858625],["▁lil",-11.270475061745971],["pel",-11.270882483274564],["æ",-11.271377710658957],["▁emphasis",-11.271388914213546],["pit",-11.271389652702211],["▁looke",-11.271466314796596],["▁mate",-11.271619825143164],["▁kal",-11.272105495440051],["▁towers",-11.272477704848605],["▁complet",-11.27275041422236],["▁rocket",-11.272925870652164],["▁traveling",-11.273046406016498],["▁sara",-11.273349656788664],["▁diocese",-11.273364888884837],["▁norfolk",-11.273647550693992],["▁cameo",-11.273695724222858],["▁survival",-11.273706260208234],["rid",-11.274049047159956],["▁lover",-11.27420453161023],["▁sur",-11.274854836771253],["▁lift",-11.274991775922274],["gli",-11.275221362568177],["▁rally",-11.27540056037142],["▁blow",-11.275493733718648],["▁patent",-11.275503318473566],["▁springfield",-11.275582482000804],["arm",-11.275675254404474],["▁integrated",-11.276535553398665],["▁tourist",-11.276716403046676],["▁load",-11.277207224873548],["▁riders",-11.277445989526154],["meets",-11.277845635884267],["▁cage",-11.277955120806508],["real",-11.27849027710909],["▁arriv",-11.278865282615618],["▁skull",-11.27907081208169],["airborn",-11.279235471158698],["▁cow",-11.27931825624089],["▁cannes",-11.279658572496768],["ense",-11.280055326632834],["▁climb",-11.28033184718898],["▁armstrong",-11.280429375128731],["▁milk",-11.280718875131678],["ا",-11.28078145996766],["▁displaye",-11.281481008398767],["▁perceive",-11.281525405504016],["▁sho",-11.282773445540094],["▁suspende",-11.283131704429014],["▁ger",-11.284289002122495],["▁nickelodeon",-11.28429054572452],["▁apollo",-11.284327489146406],["▁fled",-11.284889780679286],["▁monday",-11.284922679443946],["▁dur",-11.284947015049026],["▁particle",-11.284986927676464],["▁permission",-11.28513521383141],["oka",-11.285191863765824],["▁telling",-11.285207621193493],["▁dinosaur",-11.28568756492395],["▁patriot",-11.285710939256226],["▁lists",-11.285849235532613],["▁dreams",-11.285878031084026],["▁princeton",-11.286006648871489],["▁logo",-11.286181745888042],["▁eligible",-11.286528032551251],["founded",-11.286553674921974],["▁anthem",-11.287080506488644],["music",-11.287676795650292],["▁worship",-11.287896595776738],["▁colin",-11.28796904952621],["▁mp",-11.28805959421022],["▁sure",-11.28809375786154],["mad",-11.288104484748764],["▁biological",-11.288194619059984],["september",-11.288705395890732],["box",-11.288786680646172],["▁symptom",-11.28890501061038],["▁drake",-11.288958100597904],["▁illness",-11.289231364447676],["▁examine",-11.289606048648585],["▁saile",-11.29042218147523],["▁girlfriend",-11.29061114443742],["jack",-11.29191077240234],["▁circumstance",-11.291931977003768],["▁oversee",-11.29202439162253],["▁conventional",-11.292272153973492],["pul",-11.292283253232087],["kle",-11.292831208152702],["▁supernatural",-11.292920663684995],["▁hence",-11.2936239914947],["▁courses",-11.29396166727952],["▁execution",-11.294063416666],["▁hidden",-11.29436579836529],["gau",-11.294389878864004],["▁funk",-11.294826765196992],["fest",-11.295183125953216],["▁identical",-11.29524732848523],["▁holland",-11.295803608916076],["ı",-11.296351261309091],["▁mechanism",-11.296351332178247],["george",-11.296365319718392],["▁grandfather",-11.29670668761528],["▁matters",-11.297279166651116],["tier",-11.298019891702488],["june",-11.298270673844328],["zu",-11.298691534686505],["▁participation",-11.298851673911727],["▁addresse",-11.299407968057084],["january",-11.299497291262515],["▁fallen",-11.299624666248222],["▁papers",-11.300343625583432],["▁boom",-11.30040069833885],["▁glenn",-11.300413124393817],["rag",-11.300746677688052],["▁lamb",-11.301224378723637],["▁nasa",-11.301324124753195],["▁chile",-11.301419051758437],["hart",-11.301593427627996],["▁venice",-11.301634238541478],["october",-11.301770693745189],["▁egg",-11.302313834473876],["▁electro",-11.302518828032156],["▁kilometer",-11.303017063372252],["▁posthumous",-11.303574527238611],["▁aggressive",-11.30441133831676],["▁aide",-11.30447811030388],["februar",-11.304616209153671],["▁ruler",-11.30476148975412],["▁latest",-11.304799522240458],["▁fortune",-11.30506083618787],["athens",-11.305213279814206],["ă",-11.305449634219997],["▁accurate",-11.305528201646654],["bee",-11.305539099060834],["▁prepare",-11.305747289761577],["▁encompasse",-11.305799872327077],["▁pond",-11.30616469171475],["▁ernest",-11.306167465101916],["▁impresse",-11.306511611767588],["▁voting",-11.307259170330994],["hurst",-11.307692655558094],["▁pointed",-11.308950311489356],["▁sings",-11.308987984580458],["▁mosque",-11.309201965268908],["▁shoulder",-11.30920199063868],["▁confront",-11.309393454655671],["▁nationalist",-11.30972554663772],["udi",-11.30985906243044],["▁dee",-11.310034341351235],["▁imp",-11.310214543384332],["▁oxygen",-11.310341590826155],["▁reinforce",-11.31038677609799],["lig",-11.31077682343353],["▁rebuilt",-11.310940851345697],["▁saints",-11.310942177910494],["▁external",-11.31113131848744],["▁kane",-11.31115824190049],["▁inherit",-11.311364897928856],["▁wound",-11.311380021865109],["core",-11.311414404333648],["‘",-11.311974399454872],["▁nebraska",-11.3119743996534],["▁muhammad",-11.312138786373],["▁leads",-11.312241209037554],["▁gal",-11.312585654372867],["▁revolve",-11.312858680881584],["▁pounds",-11.312897938817509],["▁shu",-11.313387149949785],["▁payment",-11.313406844122133],["▁tracy",-11.313959494287404],["▁detect",-11.313997659076806],["etic",-11.314112354180304],["first",-11.314120282872562],["▁centered",-11.31443279618963],["gol",-11.314645078718756],["▁elect",-11.31483194411726],["yama",-11.315002271253771],["▁talking",-11.315157194979747],["▁kyle",-11.3155007159674],["▁referr",-11.315550008859274],["lov",-11.315585796498018],["▁commentary",-11.315772137492246],["july",-11.315817650144847],["guitar",-11.315836037964264],["him",-11.315965044527802],["▁prototype",-11.316208682687355],["▁chronicles",-11.31708960681228],["▁bla",-11.317423144297134],["▁luis",-11.317853273468549],["ridge",-11.317885750911012],["▁chess",-11.31799793679593],["▁varied",-11.31801190557206],["▁biographical",-11.318208456051018],["care",-11.318318937910984],["▁herbert",-11.318508052223056],["▁screene",-11.319094624894712],["▁ibn",-11.319217989153502],["▁bradley",-11.319436724288682],["pon",-11.31945690001368],["▁nancy",-11.319499384950836],["▁syndicate",-11.319585369418148],["▁protestant",-11.319674408118711],["▁beam",-11.319714681133796],["▁attending",-11.31999560172442],["▁sees",-11.320661422866875],["▁bomber",-11.320938479113334],["▁automobile",-11.32101726121134],["december",-11.321110957292836],["▁noise",-11.321339815734754],["▁jungle",-11.321555896085348],["▁stevens",-11.321668167014836],["▁racial",-11.321765833957564],["▁watson",-11.32187501361545],["▁tur",-11.322095520270397],["▁presenter",-11.322104415285354],["gun",-11.322405825286934],["later",-11.322621312295944],["▁hardy",-11.322662726869584],["▁davies",-11.322719031060224],["▁clarke",-11.322818529638006],["tive",-11.323238937878164],["april",-11.323425297130218],["▁drugs",-11.323522936162563],["blo",-11.323797302091815],["mut",-11.324048674903482],["▁specialist",-11.324100555276049],["stro",-11.324169151814846],["▁heroes",-11.324231308276998],["▁mature",-11.324284828448604],["▁luxury",-11.324423611691635],["▁prevente",-11.324593737802791],["▁sultan",-11.32492659437576],["bach",-11.325292051029573],["▁distinction",-11.325392964288312],["▁wilhelm",-11.3256451603529],["▁boundar",-11.326193189745776],["▁judges",-11.32619354282224],["▁lifestyle",-11.326241074413549],["▁lock",-11.326604349544628],["▁beck",-11.326642721263156],["▁handed",-11.32687681425286],["hot",-11.32710830633475],["iva",-11.327243439015836],["▁pretty",-11.327457803620408],["mary",-11.32747295134124],["▁crimes",-11.327493284342475],["▁seal",-11.327536332190578],["▁indeed",-11.327584306476204],["maker",-11.3277827158069],["▁investor",-11.328243664183196],["▁volcano",-11.328423848520323],["▁pad",-11.328451231004632],["▁alberta",-11.32848638806005],["▁enhance",-11.328788975709232],["handled",-11.329420634885189],["▁persuade",-11.329446135201977],["▁confused",-11.329458418895827],["▁celebration",-11.33011226358876],["▁knee",-11.33012931077694],["▁trailer",-11.330131692662109],["▁armament",-11.330137150578572],["▁permit",-11.33065275575293],["▁spur",-11.33079660090056],["drums",-11.331022503453797],["▁convection",-11.33127947409472],["▁autobiograph",-11.331980449652018],["▁travels",-11.332055556225544],["▁deposit",-11.332346352315817],["reviewed",-11.332351673336747],["▁isaac",-11.332588486431522],["▁goddess",-11.332623741026088],["▁evacuate",-11.332661571733563],["▁thunder",-11.332852123811962],["depot",-11.333823901673712],["▁survivors",-11.334278336280772],["▁pulle",-11.33437577446444],["rine",-11.33439097097923],["mé",-11.33450426525248],["▁impression",-11.334529093196329],["▁swan",-11.33468476820029],["etti",-11.335126423519831],["▁provinces",-11.335134704812528],["▁astronaut",-11.335301096969784],["▁submitte",-11.335565155405764],["sley",-11.335641433758934],["▁thinking",-11.335712825233635],["kel",-11.335773716410117],["▁blocks",-11.335777838842878],["▁jose",-11.336115262184164],["▁raj",-11.336226977605834],["▁stanford",-11.336854387422004],["chin",-11.337551215900614],["▁tele",-11.337970716133707],["hard",-11.338072365595885],["▁joel",-11.338396350813609],["▁bel",-11.338737247351832],["▁berkeley",-11.33934131682548],["▁halo",-11.34013409533872],["▁var",-11.34020638433171],["▁altitude",-11.340495622288277],["▁mob",-11.340643465820284],["▁nephew",-11.341073664634672],["▁maha",-11.341309108275416],["▁burne",-11.341495778463155],["▁wal",-11.341518207676708],["▁sheffield",-11.341663650093066],["▁reconnaissance",-11.341942395283043],["▁raaf",-11.342250459318985],["apolis",-11.342687167280133],["▁devoted",-11.34318638743485],["▁aware",-11.343447320439356],["▁substitute",-11.343491602656254],["▁honors",-11.343635419282192],["▁corridor",-11.344262933431358],["lle",-11.34454063638994],["′",-11.344553362803843],["▁grave",-11.344879484833324],["▁qu",-11.345306393038118],["▁commanding",-11.34570000374794],["cott",-11.346121598437756],["november",-11.346208533595185],["▁commerce",-11.346499328355028],["▁kor",-11.34653921110602],["▁sox",-11.346805021810642],["▁theoretical",-11.34688007228184],["▁belle",-11.34692371702256],["▁gig",-11.34737591565218],["▁cyrus",-11.347515093874684],["▁bombers",-11.347536954526737],["▁northward",-11.347600413018911],["▁richardson",-11.348017044247657],["▁presidency",-11.34808352030738],["▁gift",-11.348145498868249],["▁eli",-11.348249846994458],["▁pot",-11.348273092077868],["▁trend",-11.34858536987766],["▁vinyl",-11.34873182556962],["▁shorter",-11.348738273644988],["▁feed",-11.348859301987408],["pic",-11.349206147625951],["apply",-11.349356077050206],["young",-11.349478033157704],["▁consequent",-11.349503867931457],["▁smart",-11.349548121300757],["▁armore",-11.349704885176807],["}",-11.349795838731636],["▁doug",-11.349975323602202],["▁indies",-11.350169297185342],["и",-11.350187468742106],["▁jury",-11.35090640731788],["▁cluster",-11.351589183307173],["lag",-11.35160909484092],["▁romanian",-11.35211315619484],["▁grosse",-11.352513703612216],["▁guards",-11.352820631823512],["▁armie",-11.35288673451919],["▁westward",-11.352973191627395],["▁promot",-11.35315998185335],["▁ufc",-11.35348020091984],["▁conversion",-11.35362736186006],["▁regain",-11.353666777424216],["▁directorial",-11.355101855340202],["▁absolute",-11.35522360087078],["▁kitchen",-11.355394113488172],["gam",-11.355657658940952],["▁conquest",-11.35569489736728],["▁prompte",-11.355931504536544],["inger",-11.355950887516906],["▁reunite",-11.356131527118542],["bur",-11.356308329896253],["▁biographer",-11.357372300498897],["▁bend",-11.3574585808064],["▁favourite",-11.358370117504572],["▁reissue",-11.358414718156478],["▁johnston",-11.358628650373998],["bro",-11.359273439175468],["▁populo",-11.35946627263051],["▁restricted",-11.359769192589129],["ome",-11.359916858338712],["nett",-11.360537995882334],["▁sight",-11.360560322978053],["randy",-11.361599246179198],["▁bare",-11.361786097533276],["▁bollywood",-11.36184079573371],["▁reward",-11.36198878724677],["▁stones",-11.36205139655552],["▁feud",-11.362343612623537],["sam",-11.362394501924904],["▁installation",-11.362456378678171],["▁edgar",-11.362505439942936],["▁cattle",-11.362526433031691],["▁mai",-11.362579217960713],["▁suitabl",-11.36257968936221],["▁trigger",-11.36275874033918],["▁declaration",-11.362780779037406],["icao",-11.363148077093207],["▁dealing",-11.363187901009873],["▁behaviour",-11.363615524184592],["▁newcastle",-11.363737599386068],["osaurus",-11.364632152866951],["ception",-11.365492389414978],["▁output",-11.365507505319888],["▁renewe",-11.365902955071816],["▁prefecture",-11.36599266174295],["▁midfielder",-11.36604086135226],["▁bach",-11.366316690976156],["▁fairy",-11.366344420670844],["▁crashe",-11.36660555444411],["▁minimal",-11.366809565895371],["▁serbian",-11.366818385358783],["▁chancellor",-11.367126218734366],["▁temporari",-11.367523584361193],["matic",-11.367557468734566],["mina",-11.367642035985623],["▁fbi",-11.367850875463327],["▁legendar",-11.367875449108157],["▁dialect",-11.368066815606753],["▁signs",-11.368074644054843],["▁fed",-11.368270771019557],["ered",-11.368579123141576],["▁infrastructure",-11.368661846831204],["▁rebel",-11.368776399520025],["▁liz",-11.369298915997046],["▁sharing",-11.369706745761992],["▁subspeci",-11.370009928592744],["cur",-11.37017841862422],["▁pound",-11.371410604382994],["▁colors",-11.37153725680199],["▁familiar",-11.371958106080914],["▁myth",-11.372348675279037],["▁alpha",-11.372439051904596],["▁criticise",-11.372445226531749],["▁shut",-11.372590578867737],["▁fleming",-11.372631810419428],["▁pakistani",-11.372672981189105],["▁chu",-11.37294095558931],["▁hate",-11.373400751831095],["▁cub",-11.373439457887482],["▁craft",-11.37354551896316],["iko",-11.373562774149638],["▁sitting",-11.37379859509294],["▁brands",-11.3742097435995],["▁shock",-11.374404032727249],["▁drove",-11.37466287403957],["▁gra",-11.374683879758916],["▁steps",-11.374818748551178],["▁qualifying",-11.375086919521776],["col",-11.375179744423336],["hrew",-11.37523251281839],["▁consultant",-11.375278713256646],["▁reich",-11.375351410996446],["▁mont",-11.375447392746064],["▁solve",-11.37550610120527],["▁conspirac",-11.375834316756109],["▁gabriel",-11.376124926478528],["▁comprehensive",-11.37612872102789],["▁songwriting",-11.376180582915586],["▁periods",-11.376284084087454],["ovich",-11.376450070519272],["▁barrier",-11.376754136822344],["▁chapman",-11.377209981457982],["▁modification",-11.377341038795045],["▁ghana",-11.37743545053778],["▁chelsea",-11.377629370293212],["▁dolphin",-11.3778712776832],["▁repeat",-11.378195553516992],["▁exposure",-11.378238982763929],["kill",-11.378492239941588],["▁elaborate",-11.37853006229332],["▁archaeological",-11.378530141503427],["▁vary",-11.378735190846944],["▁announcement",-11.378863826049184],["▁sank",-11.379102914403331],["▁alignment",-11.37944319044199],["dian",-11.379770625274],["four",-11.379798336214256],["qu",-11.379814873121644],["▁file",-11.380561643466011],["▁pal",-11.380690707940156],["▁twelfth",-11.380937146071844],["▁collaborator",-11.38100837909201],["▁emotion",-11.38124129473735],["▁bore",-11.381434167183146],["▁agencie",-11.381842676263943],["▁rosa",-11.38196953998219],["fold",-11.382502114811375],["▁constitute",-11.382744166729552],["▁coordinator",-11.383091914178404],["▁receiver",-11.38333894398351],["▁carr",-11.38392251771358],["▁recruite",-11.3839487719309],["▁acquisition",-11.383954193561202],["▁whit",-11.383972990003029],["▁gregory",-11.384778534629822],["▁abraham",-11.38507910141202],["▁endemic",-11.385167823788384],["minute",-11.385335073028498],["teen",-11.385476945303628],["я",-11.385768801634612],["▁derby",-11.385881244336964],["▁mysterious",-11.386142217369878],["▁jets",-11.3861932286256],["▁kil",-11.38623894515288],["mur",-11.386398809130856],["▁nice",-11.386781100867877],["▁spike",-11.387100867436796],["take",-11.387953981185383],["asse",-11.38803068865353],["▁excellent",-11.388503456905326],["▁saving",-11.388562846745064],["▁rings",-11.389072084323708],["▁mud",-11.38913652966417],["▁belonging",-11.389336356858104],["▁slot",-11.389421951039404],["cit",-11.38993291951512],["▁suburban",-11.3899361487948],["▁concerning",-11.390137568785502],["▁tours",-11.39015698297348],["ín",-11.390216340243963],["م",-11.390227281045242],["▁ritual",-11.390319787850483],["eller",-11.390324258807505],["▁networks",-11.390740813090131],["▁mul",-11.39075414793084],["▁undertake",-11.3909195354012],["aires",-11.391181733937485],["▁puzzle",-11.39118307921738],["awa",-11.391576505964736],["poems",-11.392301913439756],["▁proceed",-11.392635688974922],["▁slaves",-11.392918450684332],["▁rider",-11.393444980663936],["▁operas",-11.393565157893043],["eri",-11.39357959617667],["▁robot",-11.393673546296656],["▁grandson",-11.3940156978266],["▁glasgow",-11.394280784935102],["rum",-11.394713928762304],["▁purple",-11.394762447266594],["▁showcase",-11.395059202501718],["rose",-11.395480538856116],["national",-11.395742705570257],["▁organism",-11.396346719477556],["▁travelle",-11.396560473895011],["▁sec",-11.39668399848179],["▁territorial",-11.396808098050784],["brien",-11.396849712079156],["slav",-11.39714261692635],["▁workshop",-11.39743650338932],["▁sheriff",-11.397439479334368],["▁enliste",-11.3976009844199],["▁fee",-11.397604811701896],["▁amazing",-11.397674153298158],["▁buck",-11.397755899151294],["▁powell",-11.39780039959622],["▁disco",-11.397971810669585],["▁forcing",-11.398192193265713],["▁shall",-11.398449176494578],["▁ancestor",-11.399180377872884],["▁thailand",-11.399485521479594],["▁kenny",-11.400314667078574],["▁meyer",-11.400573780926557],["▁lancashire",-11.400712661492468],["▁rhode",-11.400833144530406],["▁incumbent",-11.40101997696828],["his",-11.40123429191373],["▁pursuit",-11.401380550538104],["▁roth",-11.40151919013143],["▁cricketer",-11.402156470917353],["lead",-11.402281505780268],["hip",-11.402328348847162],["▁wore",-11.402608416807409],["ions",-11.402640890089804],["▁emma",-11.40268146839056],["▁vin",-11.40291389655502],["▁paradise",-11.403003713312168],["▁random",-11.403484645399992],["▁cre",-11.403499150830942],["ture",-11.40357952063912],["rected",-11.40399688092936],["▁gibson",-11.404135542197425],["▁soprano",-11.404588681518648],["▁electron",-11.404591093637473],["▁jesse",-11.40542330413743],["▁duncan",-11.40564182266209],["▁commemorate",-11.405663151757793],["▁circus",-11.405668572563052],["kal",-11.406198382882522],["▁please",-11.40654055339078],["{",-11.40656783844506],["▁plains",-11.4066156495409],["▁jin",-11.406616542892609],["▁bloom",-11.406780303947311],["▁explorer",-11.40684997570861],["▁ratio",-11.406987688837129],["▁ammunition",-11.407495482325412],["▁sierra",-11.40781491325873],["▁syria",-11.40788569181423],["▁bayern",-11.407978486768934],["abroad",-11.40817016735598],["▁napoleon",-11.40841670879938],["▁mask",-11.408548309670868],["▁arrangements",-11.408660579566876],["▁prestigious",-11.408738841637692],["type",-11.409196669067702],["arra",-11.409321993583111],["▁hurt",-11.409390563852485],["▁kai",-11.409517619493048],["▁festivals",-11.409763057021594],["▁sue",-11.40983376375932],["▁quartet",-11.41031969947496],["▁indonesian",-11.411199098511062],["▁decorated",-11.411266847163144],["ope",-11.411691905226109],["▁prolific",-11.41183593691417],["▁div",-11.41201636516722],["▁beating",-11.412979137519397],["lou",-11.413036420976018],["▁pac",-11.41304794849246],["▁fatal",-11.413141408334802],["▁autonomous",-11.413234798586355],["▁structural",-11.4132922504757],["▁pur",-11.413542529642216],["ire",-11.413647175323126],["▁illustration",-11.413747202962062],["▁adrian",-11.413757188036076],["borg",-11.414086781315335],["▁electricity",-11.414118814603691],["▁faster",-11.414157851937247],["▁fundamental",-11.414237274121758],["mir",-11.414486527450128],["link",-11.414685053610071],["piece",-11.415091963594532],["▁sheet",-11.41566970518606],["▁lithuania",-11.41595919284864],["▁withdraw",-11.416514272085225],["▁pitt",-11.416558462417411],["eating",-11.416652643305191],["▁duet",-11.416876127239044],["▁participat",-11.417275973992131],["ides",-11.417403472221322],["▁eugene",-11.417606719422349],["une",-11.41771063745226],["▁pride",-11.417891652745215],["bill",-11.41822389447467],["▁offense",-11.418305496210392],["▁administrator",-11.41838205951215],["▁dub",-11.418469727181645],["kawa",-11.419047366883918],["▁campaigns",-11.419160955526634],["zel",-11.41917450191235],["heart",-11.419216442279051],["▁dome",-11.419285807876795],["pot",-11.419476574457356],["▁partial",-11.419541721850983],["▁mus",-11.419635410495902],["▁dwarf",-11.420029435368338],["▁fault",-11.420414515396882],["▁trick",-11.420765790841294],["▁hide",-11.42108595470146],["▁traditions",-11.421178388548396],["▁ham",-11.421289790532285],["hell",-11.4215161522049],["rel",-11.421921512696793],["ashi",-11.42195280372285],["▁angels",-11.42200876846241],["▁interesting",-11.422392825435823],["▁genera",-11.422591601412776],["▁monroe",-11.423084438659036],["▁cowboys",-11.423129418320189],["té",-11.423284569246348],["italian",-11.423297443021395],["▁maurice",-11.424307272634406],["utter",-11.424314773804609],["▁striking",-11.42497187444679],["▁sheep",-11.42512521520831],["▁orthodox",-11.42525479519892],["▁rams",-11.425311722891134],["▁patterns",-11.425390468885134],["enburg",-11.425667627269702],["▁fer",-11.425779985191658],["▁opportunit",-11.425968087968473],["на",-11.425999287927684],["loc",-11.426004874853032],["▁domain",-11.426251979419076],["ule",-11.426471953968209],["filed",-11.426811080030973],["▁conversation",-11.426862010960184],["▁believ",-11.427104407636673],["▁coffee",-11.427493092286744],["▁ranch",-11.428072097836312],["▁plantation",-11.42822011851722],["north",-11.428241547793109],["▁heading",-11.428379097634831],["▁routine",-11.428440337148132],["▁ottawa",-11.428440368076467],["▁brewing",-11.428775823141684],["▁advertisement",-11.42878770101376],["▁attained",-11.42916074994291],["▁gor",-11.429424923761948],["dance",-11.42984508061122],["▁bases",-11.429874319426869],["▁fragment",-11.430096406805797],["▁voter",-11.430325260806343],["▁memphis",-11.43047059546028],["▁maritime",-11.430741885479772],["▁sonic",-11.430807456282128],["▁grove",-11.430914006836437],["ants",-11.431114861065446],["ske",-11.43122812373532],["▁dart",-11.431333544049222],["ello",-11.431531448147965],["▁tomb",-11.431600423540637],["▁employment",-11.431757233642374],["▁loud",-11.431928245389669],["sian",-11.432247148970346],["ago",-11.43226403175432],["▁heath",-11.432353799979024],["▁index",-11.43272518617299],["▁amusement",-11.43287325727618],["▁banne",-11.432895401928109],["▁prayer",-11.433102745317008],["▁noting",-11.43343410511968],["▁retailer",-11.434046523158974],["emily",-11.434169522678747],["▁occupy",-11.434460620437708],["▁surname",-11.434476405119533],["▁discograph",-11.434895656957003],["kha",-11.435027606378258],["▁bueno",-11.435414837490104],["murdered",-11.435514566821666],["▁hugo",-11.436037318529957],["▁laker",-11.43626630003119],["▁hearts",-11.436442296741149],["cen",-11.436536020597911],["rez",-11.436755500848548],["▁petersburg",-11.436840857381814],["▁calendar",-11.437325050390026],["▁sandy",-11.437469397228265],["auer",-11.43752189517262],["▁rebels",-11.437796770905306],["▁midnight",-11.437889069777068],["▁palmer",-11.4379162479896],["three",-11.438094491743849],["▁jamie",-11.438201647726157],["▁burning",-11.438899707647218],["▁elephant",-11.438921558121708],["▁servant",-11.439249962098522],["▁overlook",-11.43985507897456],["▁asking",-11.44012469998016],["▁watershed",-11.440212570291004],["▁useful",-11.440377398995356],["▁stick",-11.44066569859442],["kie",-11.440931811721883],["▁chester",-11.440939030235526],["▁examination",-11.441187683899852],["▁millennium",-11.441411127262086],["▁honore",-11.441635067873596],["▁mgm",-11.441833954374395],["bay",-11.442068822928997],["mac",-11.442119586013993],["uli",-11.442616535309732],["▁hank",-11.442642527253064],["▁dre",-11.442762266496247],["▁tourism",-11.443475959545871],["took",-11.443581948865434],["▁doors",-11.443870226160572],["ensis",-11.444229478390938],["▁intervention",-11.444365553539583],["́",-11.4444148734848],["▁mixture",-11.444711130457666],["▁prohibit",-11.44522458944738],["pri",-11.445246550362356],["▁axis",-11.445320930547474],["▁dissolve",-11.445351488631848],["▁oslo",-11.445380318973134],["eva",-11.445461305048823],["▁treasure",-11.446003464914712],["▁pupil",-11.446045467215054],["▁placing",-11.446294785022484],["▁lights",-11.446386910198802],["▁gale",-11.4464207008974],["wald",-11.446530126050808],["▁barnes",-11.446581494308662],["▁raising",-11.447289142093576],["▁spawne",-11.447459813299496],["▁maiden",-11.447510199628232],["▁itv",-11.447576581461286],["▁humor",-11.447992831503848],["▁juliet",-11.44818253715672],["▁lightning",-11.44840086397697],["▁minneapolis",-11.448543076172196],["▁carpenter",-11.449188941112237],["▁mixtape",-11.449833313333585],["altere",-11.450431459828508],["▁theaters",-11.450470870809903],["▁operator",-11.4505180795968],["ander",-11.450949829726522],["▁deer",-11.451247628761871],["▁canon",-11.45144346183238],["▁bearing",-11.451470896843883],["▁citizenship",-11.45151216645413],["▁leeds",-11.451670310767325],["gra",-11.451729827246716],["▁audition",-11.4517632758049],["sometime",-11.452425699924186],["▁aero",-11.452503636091134],["pat",-11.45251806017983],["lau",-11.452667886337943],["▁bitter",-11.452729763320889],["▁kumar",-11.452771958932956],["pir",-11.452982465817636],["▁inland",-11.453032407193216],["▁reservation",-11.45338962456182],["▁reconstruction",-11.453429483970067],["▁lin",-11.453525174087224],["▁burke",-11.45387773460379],["▁pri",-11.45404490064074],["▁wagner",-11.454063041616276],["▁carriers",-11.454385840860118],["▁ellis",-11.454564138349465],["▁holdings",-11.454680311364465],["▁mcdonald",-11.454711550556272],["▁airfield",-11.455340510308307],["▁tissue",-11.456074326535544],["▁florence",-11.456313967054797],["▁depiction",-11.456424524026607],["▁mumbai",-11.4566343484185],["▁enforcement",-11.45669269958933],["▁pierce",-11.45670297098184],["▁supplement",-11.457252535859253],["▁islam",-11.457787884656256],["▁clearly",-11.458128098813546],["last",-11.45837820642202],["▁alter",-11.45900436940372],["▁mammal",-11.45922555123497],["▁targets",-11.459229526430304],["▁gods",-11.459473360774629],["▁legion",-11.45979814479185],["▁kapoor",-11.459904174963322],["▁removal",-11.460131461130436],["lop",-11.46021637369903],["▁telephone",-11.460223982391575],["▁lawsuit",-11.460293955067431],["lé",-11.460494851173852],["ign",-11.460495693728465],["▁uprising",-11.460655667666416],["▁bailey",-11.46096361872949],["▁lithuanian",-11.461096502061189],["ux",-11.461635258745616],["richard",-11.46186353771417],["aging",-11.46188900803009],["▁relation",-11.462143012492636],["▁volcanic",-11.462173083345192],["▁mun",-11.462279873795875],["moto",-11.462338303454557],["▁kay",-11.4631002470372],["▁convert",-11.463143881810367],["usage",-11.463201239528193],["ural",-11.463389043959298],["▁crest",-11.46358057592973],["▁organic",-11.46392215789932],["▁wimbledon",-11.464135400369855],["▁gin",-11.46432315913398],["▁export",-11.464622131688104],["▁kur",-11.465463155832325],["when",-11.46565844247153],["▁arabic",-11.465868256320302],["▁lid",-11.466157440525544],["▁invade",-11.466466198569554],["ches",-11.467775350340052],["▁realm",-11.46796221327202],["▁pedro",-11.468165022021488],["▁beats",-11.468291371562504],["▁feminist",-11.46840050153712],["▁sacrifice",-11.468459049333864],["ر",-11.468565693726038],["▁preceded",-11.468567283669088],["lund",-11.468604181761872],["▁mineral",-11.468680614342835],["▁crazy",-11.468684765720065],["▁crow",-11.469129473981829],["chester",-11.469372373274156],["▁honey",-11.469572355074837],["eiro",-11.469656712351968],["▁canterbury",-11.470045873543768],["▁emphasize",-11.470140660035309],["▁michelle",-11.470228492900604],["▁finalist",-11.470416695673029],["▁airway",-11.470447812909065],["▁rebound",-11.470505729495072],["▁bottle",-11.470777663905915],["▁lopez",-11.47103514727354],["court",-11.471969803937164],["▁idaho",-11.472023828320992],["▁nautical",-11.472024617639518],["craft",-11.472385628797486],["▁distinguish",-11.472464896759387],["dog",-11.472611233767177],["▁madagascar",-11.47282301959582],["▁ladies",-11.472914484019036],["▁user",-11.473154096790202],["▁sovereign",-11.47330807303662],["▁bullet",-11.473317862198313],["▁significance",-11.473344477555411],["▁burial",-11.473375216433553],["▁broadcaster",-11.473492768470496],["▁griffin",-11.47353309027362],["rub",-11.47400455464278],["cock",-11.474187296964406],["▁switche",-11.474866288758662],["final",-11.475062445293943],["▁cutting",-11.475164904754752],["▁density",-11.475298949204356],["▁rockets",-11.475669039000008],["team",-11.475847724230618],["▁marge",-11.476099722676688],["heim",-11.476405887102382],["▁graduat",-11.47661149865052],["▁funny",-11.477058681655445],["ić",-11.477634545474528],["▁grows",-11.47782033882604],["▁authorize",-11.477946720491026],["screen",-11.478033507298738],["▁tube",-11.478259807329753],["▁accidental",-11.478268630614588],["▁roster",-11.4783043176525],["▁henderson",-11.478313336166318],["dish",-11.478324861344117],["▁worn",-11.478384761959472],["chief",-11.479447369051528],["▁accommodate",-11.479576586201814],["▁counterpart",-11.479711920193092],["▁wage",-11.479752160571856],["▁resignation",-11.480045056058897],["▁hind",-11.480445499493207],["▁intensifie",-11.480455243087796],["▁pull",-11.48047531510568],["thomas",-11.480588350354155],["▁boeing",-11.48083136705942],["mun",-11.480873152572856],["▁nurse",-11.4810469629894],["▁variations",-11.481148977035462],["lap",-11.481149927886438],["▁farmer",-11.481243190959397],["▁accord",-11.481426240366554],["▁isle",-11.481713351642792],["▁porter",-11.481726220368412],["▁wool",-11.482044447659188],["▁lynn",-11.48234891194568],["▁liner",-11.482547193211804],["▁lone",-11.48292260514534],["dow",-11.483081991991192],["▁crossover",-11.483583896667833],["odor",-11.48361285906842],["any",-11.483970495582556],["▁whale",-11.484371802732118],["▁pseudonym",-11.484976399808083],["▁bench",-11.48527391995424],["▁marking",-11.485386575333372],["▁motorcycle",-11.485455868295285],["▁trinity",-11.485647536023242],["▁demonstration",-11.485690322448065],["nov",-11.485698639109888],["▁mer",-11.48578455641942],["wal",-11.486655233428191],["▁bern",-11.487049850247],["cas",-11.487522353043508],["▁maple",-11.487525637540095],["▁welcome",-11.48779706812248],["▁utilize",-11.488007688929638],["▁exploration",-11.488053278440663],["▁custom",-11.488347790354949],["▁flee",-11.488378983852478],["▁hopkins",-11.488381654122684],["▁theories",-11.488680959355523],["god",-11.488700138074332],["▁reduction",-11.48935559359328],["putting",-11.489633573023912],["enne",-11.48964667274203],["▁intermediate",-11.48966729688124],["▁fre",-11.489781395488224],["▁fal",-11.489867077322142],["▁subdivision",-11.490003920755488],["cop",-11.490267220052498],["hiro",-11.490300809899788],["▁commitment",-11.490387062598591],["pra",-11.49045197700475],["▁hung",-11.49051226833596],["▁abbreviate",-11.490558136266786],["▁lesson",-11.490639167480694],["uch",-11.49080204648768],["▁duration",-11.49115714907678],["free",-11.491822519479356],["bla",-11.491861399659742],["smith",-11.492010289855862],["stair",-11.492219989250582],["▁hawaiian",-11.492341484227303],["person",-11.49241993166935],["▁jeffrey",-11.492785730489588],["▁obvious",-11.49336850695323],["▁transmission",-11.49338372687358],["▁concurrent",-11.493394072746543],["▁icon",-11.493529315234042],["second",-11.494028718328794],["▁certification",-11.494043036803166],["▁variation",-11.49421060068666],["▁jacque",-11.494287619377882],["▁malcolm",-11.494649340959844],["▁gran",-11.494675538856532],["▁congregation",-11.494739939710367],["ular",-11.49503398783972],["▁zombie",-11.49512304689478],["▁diplomatic",-11.495327389293871],["▁reagan",-11.495427309902013],["▁preced",-11.495796163318982],["▁failing",-11.496141383215235],["mund",-11.496314517067225],["nish",-11.496465558051035],["berry",-11.496731320542075],["▁profession",-11.497074684981476],["hole",-11.49715706079779],["č",-11.497213069065204],["▁allmusic",-11.497347100717125],["sur",-11.49790350389132],["zon",-11.4985729921364],["vit",-11.498697285918928],["▁explicit",-11.499115649028248],["▁zu",-11.499191497560016],["▁holder",-11.499417794846543],["aria",-11.49968080640413],["▁jail",-11.499746948158872],["▁saturn",-11.49984665747344],["mba",-11.500313294404354],["▁ordinar",-11.500315880969186],["▁timber",-11.50035215923806],["llc",-11.500526713771215],["▁explosive",-11.500812289815457],["▁animator",-11.500813336968712],["▁ellen",-11.500963054740971],["spanning",-11.501068172740965],["▁dwight",-11.501153017004096],["▁gerald",-11.501348569290837],["▁expressway",-11.50135192978695],["▁bru",-11.50140439359586],["▁paint",-11.50148340514819],["▁armour",-11.50172191029245],["▁restriction",-11.501955591111043],["▁fri",-11.50198607400049],["▁molecular",-11.502066254161452],["▁contributor",-11.503015192222898],["▁cruz",-11.50307829410928],["▁afl",-11.50333662267166],["▁sailor",-11.503488340176595],["▁kit",-11.503633560519502],["▁gru",-11.503641184467632],["made",-11.504074686734516],["▁acknowledged",-11.504344580125183],["▁traged",-11.504512247611054],["▁closure",-11.504555160565328],["▁radiation",-11.504909662974002],["▁tough",-11.505146388902382],["▁naming",-11.505302052659292],["arian",-11.50574933363436],["▁stuff",-11.506320187386034],["▁farmers",-11.506795674278552],["arabic",-11.50689172142571],["tested",-11.507028690532463],["lane",-11.50725485881699],["▁malay",-11.50728255554439],["ucci",-11.507492468248422],["▁lanka",-11.50762027499142],["▁mushroom",-11.507631346987996],["animated",-11.507683435335714],["pool",-11.50809609382775],["▁texts",-11.508102806177355],["▁ranges",-11.508263079324571],["▁compact",-11.508319077164552],["▁intelligent",-11.50843068813758],["owns",-11.50843566600206],["▁unofficial",-11.50876851862769],["▁deliberate",-11.50933895004598],["▁theodore",-11.509903840626896],["▁muscle",-11.510038975048891],["▁experiments",-11.510324259262326],["▁clause",-11.510435557059118],["▁blend",-11.510800375228872],["▁warrior",-11.51125717856976],["▁cord",-11.511551970566122],["▁pol",-11.511688915459896],["▁shepherd",-11.512082988278928],["▁maneuver",-11.51242712606539],["▁regulations",-11.512588851541867],["▁warship",-11.512691103917888],["▁exists",-11.51335919059537],["rash",-11.513373247107616],["jar",-11.513426402217352],["speak",-11.5135212456005],["▁frigate",-11.514170182778496],["▁striker",-11.514425863863764],["▁technologie",-11.514492032833758],["▁baltic",-11.514652491900314],["▁prefer",-11.514716314049569],["▁wreck",-11.515106049599336],["▁trump",-11.515240793573104],["▁newman",-11.515348269252822],["▁shooter",-11.515783340262018],["graph",-11.515908112586075],["▁button",-11.515917577149285],["▁essex",-11.515919480265335],["▁floyd",-11.515935401563706],["▁snake",-11.516005073714693],["▁sail",-11.51661942281262],["т",-11.516806413871697],["▁rabbit",-11.517052662345378],["▁suspect",-11.517112873321134],["▁und",-11.51782751295735],["▁destination",-11.517830563978675],["▁civic",-11.51828524306938],["▁dock",-11.518386200862327],["▁prussia",-11.518440913211272],["▁middleweight",-11.518533972389047],["invente",-11.518879829244996],["▁reforme",-11.518979111673127],["▁bones",-11.51944635588644],["▁mentor",-11.519717321762917],["▁tide",-11.51973385988489],["а",-11.519814311425122],["▁karen",-11.520308941635124],["▁protests",-11.520499568380515],["tori",-11.52094021165505],["▁romania",-11.521005368147408],["▁franz",-11.521022003867872],["▁mathematical",-11.5210531180842],["▁sacred",-11.521130397914826],["▁emerg",-11.521150860851638],["▁crane",-11.521190797542582],["▁serbia",-11.52125957183084],["▁constituency",-11.521342291301156],["▁mechanics",-11.521572829934849],["▁guarantee",-11.521746483834209],["▁milwaukee",-11.521886865483374],["▁garage",-11.522613943245728],["▁telegraph",-11.522759365070266],["▁assassination",-11.522851996099297],["diary",-11.522922046269583],["punk",-11.523084286474386],["▁louise",-11.523110635339137],["▁witch",-11.523363883596367],["▁onward",-11.523410270963742],["▁inclusion",-11.523492984900074],["▁lucy",-11.523848594878205],["▁infection",-11.524211232643191],["foot",-11.524303805663394],["its",-11.524400223219413],["▁progresse",-11.524653115693273],["▁negotiate",-11.525208448072078],["▁fusion",-11.5254036182438],["▁distant",-11.525576922199628],["▁kha",-11.525765407077037],["para",-11.526004201894942],["▁cuban",-11.52619734409333],["▁stronge",-11.526227556040745],["ë",-11.526404028789145],["front",-11.526410288442856],["▁passion",-11.52642730152334],["к",-11.52669826413108],["▁mvp",-11.527324756274286],["▁carroll",-11.527414375075963],["▁acc",-11.527947209242411],["▁laugh",-11.527967403757083],["▁monastery",-11.528357628198446],["▁lemur",-11.528592387139591],["▁mercedes",-11.528733757279936],["α",-11.528737222858505],["▁guid",-11.528764347616972],["▁skill",-11.529084813745513],["▁bou",-11.529135095320656],["▁variant",-11.5291585780322],["▁impose",-11.529377595248706],["▁wilderness",-11.529457648103056],["▁linda",-11.529461650566114],["ي",-11.529879150241166],["▁singers",-11.529929541811873],["▁edmund",-11.530123373356746],["▁dig",-11.530131108439203],["adventure",-11.530324243514247],["▁terrain",-11.530385420516264],["sport",-11.531459496508251],["died",-11.53151204324896],["▁proportion",-11.5315475232694],["▁links",-11.531721594909138],["▁locke",-11.532203267249352],["▁cliff",-11.5329263169444],["▁lance",-11.533020285987138],["▁woodland",-11.533173343198316],["▁triangle",-11.533257027741108],["▁booth",-11.533576490547713],["argo",-11.53379464705414],["sham",-11.53389097062792],["▁editorial",-11.533985558317408],["prop",-11.53402970012534],["▁fewe",-11.534034720156274],["▁follower",-11.5342190940644],["▁spotted",-11.53421968859598],["▁friedrich",-11.534231520706916],["raw",-11.534239978008124],["▁mlb",-11.53444275439459],["▁ultra",-11.53461564854259],["chal",-11.534882674926894],["▁navigation",-11.534974757073492],["▁grossing",-11.535180443075747],["nine",-11.535269012492684],["cle",-11.535551032975366],["▁mick",-11.53598254663584],["▁cohen",-11.536113007520951],["that",-11.536228533616796],["pac",-11.536301700022486],["▁dying",-11.536470882438392],["▁mil",-11.536643487514183],["▁hardcore",-11.536771829952638],["▁johann",-11.53695897677692],["▁variable",-11.537492420428276],["▁hiatus",-11.537496917067108],["angry",-11.53765054676774],["▁tang",-11.537845001140314],["▁conquer",-11.537967827801396],["▁reduc",-11.538051588013694],["▁possesse",-11.538338740971156],["▁witness",-11.53834991450051],["▁suggestion",-11.538458631167714],["▁bombs",-11.538687471547751],["ates",-11.53918814224734],["▁infant",-11.539222359747296],["▁kir",-11.539375781048886],["lived",-11.53974609630893],["gas",-11.539764782921033],["▁accessibl",-11.53977255532062],["▁bulgarian",-11.539846041633703],["▁discontinue",-11.53988064321074],["▁outcome",-11.54005413796092],["inus",-11.540105739770992],["derek",-11.540226877000588],["hus",-11.540757792228987],["▁hum",-11.54091162860674],["▁capabilit",-11.541418912401438],["tate",-11.541537663653404],["rapy",-11.541961974665126],["▁stretche",-11.542069176888536],["▁orchestral",-11.542411396903743],["▁pepper",-11.542562123413903],["ink",-11.543102627680051],["shaw",-11.543198708559714],["▁marco",-11.543202141242238],["was",-11.54337072311347],["lat",-11.543389187442475],["▁nights",-11.543808437315835],["▁olivia",-11.54419626622905],["▁wong",-11.544849960847476],["rak",-11.54486981225918],["▁interim",-11.544962218483246],["▁pier",-11.544976788492963],["tonight",-11.545039609094232],["org",-11.545047891995996],["▁shallow",-11.545254799968223],["▁modest",-11.545257917678772],["▁reader",-11.545414738919352],["mul",-11.545517200367769],["▁kat",-11.545904373257253],["▁logan",-11.54621576808034],["▁marathon",-11.546678524319326],["▁closes",-11.546695450032988],["▁markete",-11.548208486212202],["▁lords",-11.548263508676712],["inter",-11.548666717194209],["▁expect",-11.548727554106463],["▁georg",-11.549186388411664],["▁percussion",-11.549202339578418],["▁televise",-11.549852809757542],["▁diversity",-11.54992310175031],["urdu",-11.550150072918932],["unc",-11.550939456878094],["▁louisvill",-11.551125409223186],["aids",-11.551331324559834],["▁andré",-11.551370586582744],["league",-11.55149396535078],["▁punch",-11.551714362978236],["▁merit",-11.552141110956669],["▁nash",-11.552199384714278],["ack",-11.55222846576429],["cru",-11.552658883774708],["▁rican",-11.552787972364255],["▁mcg",-11.552868976762088],["flies",-11.552941544482431],["▁wade",-11.552953820943449],["▁doctrine",-11.553098173757927],["▁inscription",-11.553099914243694],["▁jessica",-11.5531267398773],["▁hitting",-11.55318333052916],["▁awareness",
[...]
